{
  "merges": [
    [
      "Ġ",
      "t"
    ],
    [
      "Ġ",
      "a"
    ],
    [
      "i",
      "n"
    ],
    [
      "e",
      "r"
    ],
    [
      "o",
      "r"
    ],
    [
      "o",
      "n"
    ],
    [
      "Ġt",
      "h"
    ],
    [
      "e",
      "s"
    ],
    [
      "o",
      "u"
    ],
    [
      "a",
      "t"
    ],
    [
      "r",
      "e"
    ],
    [
      "r",
      "e"
    ],
    [
      "Ġ",
      "c"
    ],
    [
      "e",
      "n"
    ],
    [
      "r",
      "e"
    ],
    [
      "Ġ",
      "s"
    ],
    [
      "i",
      "t"
    ],
    [
      "Ġ",
      "p"
    ],
    [
      "Ġth",
      "e"
    ],
    [
      "a",
      "t"
    ],
    [
      "i",
      "s"
    ],
    [
      "e",
      "d"
    ],
    [
      "r",
      "e"
    ],
    [
      "Ġ",
      "w"
    ],
    [
      "a",
      "n"
    ],
    [
      "a",
      "n"
    ],
    [
      "Ġ",
      "b"
    ],
    [
      "n",
      "d"
    ],
    [
      "a",
      "n"
    ],
    [
      "a",
      "r"
    ],
    [
      "r",
      "e"
    ],
    [
      "Ġth",
      "e"
    ],
    [
      "in",
      "g"
    ],
    [
      "Ġ",
      "f"
    ],
    [
      "Ġt",
      "o"
    ],
    [
      "n",
      "d"
    ],
    [
      "Ġa",
      "n"
    ],
    [
      "a",
      "r"
    ],
    [
      "t",
      "i"
    ],
    [
      "a",
      "t"
    ],
    [
      "t",
      "i"
    ],
    [
      "a",
      "l"
    ],
    [
      "Ġ",
      "o"
    ],
    [
      "i",
      "c"
    ],
    [
      "Ġ",
      "o"
    ],
    [
      "a",
      "l"
    ],
    [
      "t",
      "i"
    ],
    [
      "Ġ",
      "m"
    ],
    [
      "Ġ",
      "y"
    ],
    [
      "i",
      "on"
    ],
    [
      "Ġy",
      "ou"
    ],
    [
      "l",
      "e"
    ],
    [
      "a",
      "l"
    ],
    [
      "Ġ",
      "in"
    ],
    [
      "Ġ",
      "d"
    ],
    [
      "l",
      "l"
    ],
    [
      "Ġan",
      "d"
    ],
    [
      "o",
      "f"
    ],
    [
      "u",
      "s"
    ],
    [
      "a",
      "l"
    ],
    [
      "e",
      "a"
    ],
    [
      "a",
      "t"
    ],
    [
      "r",
      "e"
    ],
    [
      "a",
      "n"
    ],
    [
      "Ġth",
      "e"
    ],
    [
      "a",
      "r"
    ],
    [
      "Ġ",
      "r"
    ],
    [
      "r",
      "e"
    ],
    [
      "a",
      "l"
    ],
    [
      "r",
      "o"
    ],
    [
      "a",
      "r"
    ],
    [
      "Ġ",
      "of"
    ],
    [
      "e",
      "c"
    ],
    [
      "r",
      "e"
    ],
    [
      "en",
      "t"
    ],
    [
      "o",
      "m"
    ],
    [
      "e",
      "t"
    ],
    [
      "Ġth",
      "e"
    ],
    [
      "r",
      "e"
    ],
    [
      "Ġ",
      "h"
    ],
    [
      "t",
      "ion"
    ],
    [
      "a",
      "t"
    ],
    [
      "u",
      "s"
    ],
    [
      "e",
      "l"
    ],
    [
      "r",
      "e"
    ],
    [
      "Ġ",
      "u"
    ],
    [
      "s",
      "t"
    ],
    [
      "s",
      "t"
    ],
    [
      "u",
      "r"
    ],
    [
      "r",
      "e"
    ],
    [
      "r",
      "a"
    ],
    [
      "a",
      "t"
    ],
    [
      "a",
      "n"
    ],
    [
      "a",
      "r"
    ],
    [
      "a",
      "l"
    ],
    [
      "Ġ",
      "l"
    ],
    [
      "u",
      "r"
    ],
    [
      "e",
      "m"
    ],
    [
      "Ġth",
      "e"
    ],
    [
      "r",
      "e"
    ],
    [
      "r",
      "a"
    ],
    [
      "o",
      "t"
    ],
    [
      "Ġ",
      "n"
    ],
    [
      "i",
      "l"
    ],
    [
      "r",
      "o"
    ],
    [
      "t",
      "a"
    ],
    [
      "a",
      "t"
    ],
    [
      "a",
      "n"
    ],
    [
      "a",
      "r"
    ],
    [
      "a",
      "l"
    ],
    [
      "s",
      "t"
    ],
    [
      "Ġf",
      "or"
    ],
    [
      "Ġ",
      "2"
    ],
    [
      "e",
      "l"
    ],
    [
      "a",
      "c"
    ],
    [
      "r",
      "a"
    ],
    [
      "Ġ",
      "S"
    ],
    [
      "t",
      "a"
    ],
    [
      "a",
      "s"
    ],
    [
      "s",
      "t"
    ],
    [
      "r",
      "a"
    ],
    [
      "t",
      "a"
    ],
    [
      "Ġp",
      "r"
    ],
    [
      "r",
      "e"
    ],
    [
      "r",
      "a"
    ],
    [
      "v",
      "e"
    ],
    [
      "e",
      "l"
    ],
    [
      "Ġ",
      "or"
    ],
    [
      "o",
      "w"
    ],
    [
      "l",
      "e"
    ],
    [
      "Ġ",
      "C"
    ],
    [
      "o",
      "o"
    ],
    [
      "v",
      "e"
    ],
    [
      "a",
      "c"
    ],
    [
      "Ġ",
      "is"
    ],
    [
      "a",
      "y"
    ],
    [
      "r",
      "a"
    ],
    [
      "t",
      "a"
    ],
    [
      "Ġ",
      "T"
    ],
    [
      "i",
      "l"
    ],
    [
      "a",
      "s"
    ],
    [
      "Ġ",
      "I"
    ],
    [
      "c",
      "h"
    ],
    [
      "a",
      "c"
    ],
    [
      "Ġ",
      "A"
    ],
    [
      "l",
      "y"
    ],
    [
      "a",
      "l"
    ],
    [
      "e",
      "l"
    ],
    [
      "i",
      "l"
    ],
    [
      "o",
      "s"
    ],
    [
      "Ġ2",
      "0"
    ],
    [
      "es",
      "s"
    ],
    [
      "er",
      "s"
    ],
    [
      "â",
      "Ģ"
    ],
    [
      "Ġyou",
      "r"
    ],
    [
      "r",
      "e"
    ],
    [
      "Ġ",
      "on"
    ],
    [
      "i",
      "v"
    ],
    [
      "c",
      "h"
    ],
    [
      "s",
      "t"
    ],
    [
      "Ġc",
      "a"
    ],
    [
      "a",
      "t"
    ],
    [
      "a",
      "n"
    ],
    [
      "a",
      "r"
    ],
    [
      "a",
      "l"
    ],
    [
      "a",
      "c"
    ],
    [
      "a",
      "s"
    ],
    [
      "c",
      "e"
    ],
    [
      "e",
      "l"
    ],
    [
      "a",
      "c"
    ],
    [
      "Ġu",
      "s"
    ],
    [
      "s",
      "t"
    ],
    [
      "Ġ",
      "P"
    ],
    [
      "Ġ",
      "e"
    ],
    [
      "e",
      "l"
    ],
    [
      "o",
      "p"
    ],
    [
      "Ġa",
      "r"
    ],
    [
      "r",
      "a"
    ],
    [
      "r",
      "e"
    ],
    [
      "Ġb",
      "e"
    ],
    [
      "e",
      "l"
    ],
    [
      "c",
      "e"
    ],
    [
      "o",
      "l"
    ],
    [
      "l",
      "e"
    ],
    [
      "i",
      "d"
    ],
    [
      "Ġ",
      "e"
    ],
    [
      "i",
      "m"
    ],
    [
      "l",
      "a"
    ],
    [
      "a",
      "t"
    ],
    [
      "a",
      "n"
    ],
    [
      "a",
      "r"
    ],
    [
      "a",
      "l"
    ],
    [
      "e",
      "l"
    ],
    [
      "a",
      "c"
    ],
    [
      "i",
      "l"
    ],
    [
      "a",
      "s"
    ],
    [
      "i",
      "g"
    ],
    [
      "it",
      "h"
    ],
    [
      "h",
      "a"
    ],
    [
      "a",
      "t"
    ],
    [
      "a",
      "n"
    ],
    [
      "a",
      "r"
    ],
    [
      "a",
      "l"
    ],
    [
      "a",
      "s"
    ],
    [
      "c",
      "h"
    ],
    [
      "t",
      "ion"
    ],
    [
      "c",
      "t"
    ],
    [
      "a",
      "c"
    ],
    [
      "t",
      "ion"
    ],
    [
      "i",
      "r"
    ],
    [
      "r",
      "a"
    ],
    [
      "r",
      "e"
    ],
    [
      "i",
      "a"
    ],
    [
      "a",
      "t"
    ],
    [
      "a",
      "n"
    ],
    [
      "a",
      "r"
    ],
    [
      "a",
      "l"
    ],
    [
      "a",
      "c"
    ],
    [
      "a",
      "s"
    ],
    [
      "i",
      "es"
    ],
    [
      "t",
      "r"
    ],
    [
      "a",
      "t"
    ],
    [
      "r",
      "a"
    ],
    [
      "r",
      "e"
    ],
    [
      "s",
      "t"
    ],
    [
      "l",
      "y"
    ],
    [
      "h",
      "a"
    ],
    [
      "Ġ",
      "g"
    ],
    [
      "e",
      "."
    ],
    [
      "Ġth",
      "e"
    ],
    [
      "l",
      "e"
    ],
    [
      "r",
      "e"
    ],
    [
      "Ġ",
      "e"
    ],
    [
      "c",
      "e"
    ],
    [
      "n",
      "d"
    ],
    [
      "l",
      "a"
    ],
    [
      "t",
      "er"
    ],
    [
      "a",
      "t"
    ],
    [
      "s",
      "t"
    ],
    [
      "Ġw",
      "e"
    ],
    [
      "e",
      "l"
    ],
    [
      "t",
      "r"
    ],
    [
      "Ġar",
      "e"
    ],
    [
      "c",
      "t"
    ],
    [
      "Ġ",
      "("
    ],
    [
      "Ġc",
      "on"
    ],
    [
      "v",
      "e"
    ],
    [
      "t",
      "e"
    ],
    [
      "a",
      "t"
    ],
    [
      "s",
      "t"
    ],
    [
      "t",
      "e"
    ],
    [
      "o",
      "v"
    ],
    [
      "ou",
      "r"
    ],
    [
      "r",
      "a"
    ],
    [
      "Ġw",
      "ith"
    ],
    [
      "Ġh",
      "a"
    ],
    [
      "a",
      "t"
    ],
    [
      "a",
      "n"
    ],
    [
      "a",
      "r"
    ],
    [
      "a",
      "l"
    ],
    [
      "a",
      "c"
    ],
    [
      "a",
      "s"
    ],
    [
      "n",
      "t"
    ],
    [
      "a",
      "n"
    ],
    [
      "t",
      "a"
    ],
    [
      "t",
      "r"
    ],
    [
      "t",
      "e"
    ],
    [
      "Ġ",
      "M"
    ],
    [
      "b",
      "l"
    ],
    [
      "l",
      "e"
    ],
    [
      "l",
      "y"
    ],
    [
      "l",
      "a"
    ],
    [
      "m",
      "a"
    ],
    [
      "a",
      "t"
    ],
    [
      "a",
      "n"
    ],
    [
      "a",
      "r"
    ],
    [
      "a",
      "l"
    ],
    [
      "a",
      "c"
    ],
    [
      "a",
      "s"
    ],
    [
      "Ġr",
      "e"
    ],
    [
      "e",
      "l"
    ],
    [
      "a",
      "g"
    ],
    [
      "r",
      "a"
    ],
    [
      "t",
      "a"
    ],
    [
      "h",
      "a"
    ],
    [
      "l",
      "a"
    ],
    [
      "n",
      "t"
    ],
    [
      "u",
      "t"
    ],
    [
      "t",
      "a"
    ],
    [
      "t",
      "ion"
    ],
    [
      "t",
      "r"
    ],
    [
      "t",
      "e"
    ],
    [
      "m",
      "a"
    ],
    [
      "n",
      "c"
    ],
    [
      "a",
      "n"
    ],
    [
      "c",
      "h"
    ],
    [
      "c",
      "e"
    ],
    [
      "o",
      "l"
    ],
    [
      "u",
      "s"
    ],
    [
      "is",
      "t"
    ],
    [
      "t",
      "a"
    ],
    [
      "t",
      "e"
    ],
    [
      "n",
      "c"
    ],
    [
      "ou",
      "r"
    ],
    [
      "Ġb",
      "e"
    ],
    [
      "o",
      "d"
    ],
    [
      "Ġr",
      "e"
    ],
    [
      "i",
      "f"
    ],
    [
      "u",
      "t"
    ],
    [
      "ec",
      "t"
    ],
    [
      "t",
      "a"
    ],
    [
      "t",
      "ion"
    ],
    [
      "t",
      "e"
    ],
    [
      "t",
      "h"
    ],
    [
      "t",
      "h"
    ],
    [
      "Ġs",
      "t"
    ],
    [
      "t",
      "a"
    ],
    [
      "t",
      "e"
    ],
    [
      "e",
      "x"
    ],
    [
      "r",
      "e"
    ],
    [
      "l",
      "e"
    ],
    [
      "t",
      "e"
    ],
    [
      "p",
      "p"
    ],
    [
      "e",
      "v"
    ],
    [
      "r",
      "e"
    ],
    [
      "c",
      "e"
    ],
    [
      "l",
      "e"
    ],
    [
      "t",
      "e"
    ],
    [
      "Ġb",
      "e"
    ],
    [
      "Ġr",
      "e"
    ],
    [
      "t",
      "s"
    ],
    [
      "a",
      "t"
    ],
    [
      "s",
      "t"
    ],
    [
      "c",
      "t"
    ],
    [
      "n",
      "t"
    ],
    [
      "u",
      "t"
    ],
    [
      "f",
      "or"
    ],
    [
      "u",
      "n"
    ],
    [
      "n",
      "d"
    ],
    [
      "n",
      "t"
    ],
    [
      "n",
      "c"
    ],
    [
      "Ġm",
      "a"
    ],
    [
      "a",
      "t"
    ],
    [
      "a",
      "r"
    ],
    [
      "a",
      "n"
    ],
    [
      "a",
      "l"
    ],
    [
      "a",
      "c"
    ],
    [
      "a",
      "s"
    ],
    [
      "ĠT",
      "h"
    ],
    [
      "h",
      "a"
    ],
    [
      "Ġt",
      "o"
    ],
    [
      "Ġ",
      "F"
    ],
    [
      "Ġw",
      "h"
    ],
    [
      "h",
      "a"
    ],
    [
      "f",
      "or"
    ],
    [
      "Ġb",
      "y"
    ],
    [
      "e",
      "p"
    ],
    [
      "Ġth",
      "e"
    ],
    [
      "r",
      "e"
    ],
    [
      "l",
      "e"
    ],
    [
      "c",
      "e"
    ],
    [
      "t",
      "e"
    ],
    [
      "Ġ",
      "v"
    ],
    [
      "Ġca",
      "n"
    ],
    [
      "n",
      "d"
    ],
    [
      "n",
      "t"
    ],
    [
      "n",
      "c"
    ],
    [
      "s",
      "e"
    ],
    [
      "a",
      "s"
    ],
    [
      "u",
      "s"
    ],
    [
      "e",
      ","
    ],
    [
      "r",
      "e"
    ],
    [
      "l",
      "e"
    ],
    [
      "c",
      "e"
    ],
    [
      "Ġb",
      "e"
    ],
    [
      "t",
      "e"
    ],
    [
      "Ġ",
      "D"
    ],
    [
      "t",
      "s"
    ],
    [
      "i",
      "ll"
    ],
    [
      "a",
      "g"
    ],
    [
      "Ġ",
      "B"
    ],
    [
      "Ġ",
      "W"
    ],
    [
      "oo",
      "k"
    ],
    [
      "Ġa",
      "d"
    ],
    [
      "s",
      "e"
    ],
    [
      "Ġa",
      "s"
    ],
    [
      "s",
      "t"
    ],
    [
      "s",
      "e"
    ],
    [
      "Ġth",
      "a"
    ],
    [
      "a",
      "t"
    ],
    [
      "a",
      "r"
    ],
    [
      "a",
      "n"
    ],
    [
      "a",
      "l"
    ],
    [
      "Ġ",
      "it"
    ],
    [
      "a",
      "m"
    ],
    [
      "r",
      "a"
    ],
    [
      "t",
      "a"
    ],
    [
      "l",
      "a"
    ],
    [
      "h",
      "a"
    ],
    [
      "m",
      "a"
    ],
    [
      "u",
      "c"
    ],
    [
      "c",
      "h"
    ],
    [
      "c",
      "e"
    ],
    [
      "c",
      "t"
    ],
    [
      "es",
      "t"
    ],
    [
      "t",
      "a"
    ],
    [
      "t",
      "ion"
    ],
    [
      "t",
      "e"
    ],
    [
      "t",
      "h"
    ],
    [
      "t",
      "s"
    ],
    [
      "u",
      "l"
    ],
    [
      "l",
      "y"
    ],
    [
      "l",
      "a"
    ],
    [
      "l",
      "e"
    ],
    [
      "r",
      "d"
    ],
    [
      "a",
      "r"
    ],
    [
      "u",
      "r"
    ],
    [
      "ou",
      "r"
    ],
    [
      "u",
      "n"
    ],
    [
      "s",
      "."
    ],
    [
      "a",
      "s"
    ],
    [
      "u",
      "s"
    ],
    [
      "t",
      "s"
    ],
    [
      "Ġ",
      "ou"
    ],
    [
      "b",
      "s"
    ],
    [
      "s",
      "t"
    ],
    [
      "s",
      "e"
    ],
    [
      "Ġp",
      "a"
    ],
    [
      "a",
      "t"
    ],
    [
      "a",
      "n"
    ],
    [
      "a",
      "r"
    ],
    [
      "a",
      "l"
    ],
    [
      "a",
      "c"
    ],
    [
      "a",
      "s"
    ],
    [
      "Ġr",
      "e"
    ],
    [
      "g",
      "e"
    ],
    [
      "e",
      "l"
    ],
    [
      "v",
      "e"
    ],
    [
      "s",
      ","
    ],
    [
      "a",
      "s"
    ],
    [
      "u",
      "s"
    ],
    [
      "t",
      "s"
    ],
    [
      "t",
      "er"
    ],
    [
      "r",
      "d"
    ],
    [
      "q",
      "u"
    ],
    [
      "u",
      "s"
    ],
    [
      "r",
      "y"
    ],
    [
      "a",
      "r"
    ],
    [
      "u",
      "r"
    ],
    [
      "Ġ20",
      "1"
    ],
    [
      "or",
      "m"
    ],
    [
      "m",
      "a"
    ],
    [
      "u",
      "m"
    ],
    [
      "m",
      "a"
    ],
    [
      "s",
      "."
    ],
    [
      "e",
      "g"
    ],
    [
      "Ġth",
      "e"
    ],
    [
      "r",
      "e"
    ],
    [
      "l",
      "e"
    ],
    [
      "c",
      "e"
    ],
    [
      "Ġb",
      "e"
    ],
    [
      "t",
      "e"
    ],
    [
      "s",
      "e"
    ],
    [
      "v",
      "e"
    ],
    [
      "e",
      "f"
    ],
    [
      "Ġth",
      "e"
    ],
    [
      "r",
      "e"
    ],
    [
      "l",
      "e"
    ],
    [
      "c",
      "e"
    ],
    [
      "Ġb",
      "e"
    ],
    [
      "t",
      "e"
    ],
    [
      "s",
      "e"
    ],
    [
      "b",
      "er"
    ],
    [
      "a",
      "g"
    ],
    [
      "Ġ",
      "1"
    ],
    [
      "Ġtha",
      "t"
    ],
    [
      "t",
      "s"
    ],
    [
      "l",
      "s"
    ],
    [
      "a",
      "l"
    ],
    [
      "e",
      "l"
    ],
    [
      "i",
      "l"
    ],
    [
      "s",
      "t"
    ],
    [
      "o",
      "l"
    ],
    [
      "s",
      "e"
    ],
    [
      "s",
      "."
    ],
    [
      "o",
      "c"
    ],
    [
      "c",
      "h"
    ],
    [
      "c",
      "e"
    ],
    [
      "c",
      "t"
    ],
    [
      "os",
      "t"
    ],
    [
      "t",
      "a"
    ],
    [
      "t",
      "h"
    ],
    [
      "t",
      "e"
    ],
    [
      "t",
      "er"
    ],
    [
      "a",
      "i"
    ],
    [
      "r",
      "a"
    ],
    [
      "i",
      "l"
    ],
    [
      "t",
      "a"
    ],
    [
      "m",
      "a"
    ],
    [
      "e",
      "w"
    ],
    [
      "r",
      "e"
    ],
    [
      "l",
      "e"
    ],
    [
      "c",
      "e"
    ],
    [
      "Ġb",
      "e"
    ],
    [
      "t",
      "e"
    ],
    [
      "s",
      "e"
    ],
    [
      "v",
      "e"
    ],
    [
      "h",
      "er"
    ],
    [
      "c",
      "h"
    ],
    [
      "t",
      "h"
    ],
    [
      "t",
      "s"
    ],
    [
      "Ġn",
      "ot"
    ],
    [
      "Ġa",
      "c"
    ],
    [
      "c",
      "h"
    ],
    [
      "c",
      "e"
    ],
    [
      "c",
      "t"
    ],
    [
      "Ġ",
      "ex"
    ],
    [
      "Ġm",
      "a"
    ],
    [
      "Ġ",
      "O"
    ],
    [
      "Ġ",
      "R"
    ],
    [
      "g",
      "e"
    ],
    [
      "it",
      "y"
    ],
    [
      "r",
      "y"
    ],
    [
      "l",
      "d"
    ],
    [
      "a",
      "l"
    ],
    [
      "e",
      "l"
    ],
    [
      "i",
      "l"
    ],
    [
      "o",
      "l"
    ],
    [
      "Ġs",
      "h"
    ],
    [
      "h",
      "a"
    ],
    [
      "a",
      "i"
    ],
    [
      "Ġth",
      "is"
    ],
    [
      "s",
      ","
    ],
    [
      "Ġf",
      "r"
    ],
    [
      "r",
      "a"
    ],
    [
      "r",
      "e"
    ],
    [
      "r",
      "t"
    ],
    [
      "a",
      "r"
    ],
    [
      "u",
      "r"
    ],
    [
      "t",
      "a"
    ],
    [
      "t",
      "h"
    ],
    [
      "t",
      "e"
    ],
    [
      "t",
      "er"
    ],
    [
      "t",
      "s"
    ],
    [
      "o",
      "a"
    ],
    [
      "a",
      "t"
    ],
    [
      "a",
      "n"
    ],
    [
      "a",
      "r"
    ],
    [
      "a",
      "l"
    ],
    [
      "a",
      "c"
    ],
    [
      "a",
      "s"
    ],
    [
      "Ġt",
      "o"
    ],
    [
      "a",
      "g"
    ],
    [
      "ic",
      "a"
    ],
    [
      "a",
      "t"
    ],
    [
      "a",
      "n"
    ],
    [
      "a",
      "r"
    ],
    [
      "a",
      "l"
    ],
    [
      "a",
      "c"
    ],
    [
      "a",
      "s"
    ],
    [
      "a",
      "g"
    ],
    [
      "ou",
      "n"
    ],
    [
      "n",
      "d"
    ],
    [
      "n",
      "c"
    ],
    [
      "n",
      "t"
    ],
    [
      "b",
      "l"
    ],
    [
      "h",
      "er"
    ],
    [
      "or",
      "e"
    ],
    [
      "e",
      "l"
    ],
    [
      "ig",
      "h"
    ],
    [
      "h",
      "a"
    ],
    [
      "or",
      "t"
    ],
    [
      "t",
      "a"
    ],
    [
      "t",
      "ion"
    ],
    [
      "t",
      "h"
    ],
    [
      "t",
      "e"
    ],
    [
      "t",
      "er"
    ],
    [
      "t",
      "s"
    ],
    [
      "o",
      "p"
    ],
    [
      "t",
      "r"
    ],
    [
      "h",
      "er"
    ],
    [
      "a",
      "m"
    ],
    [
      "u",
      "l"
    ],
    [
      "t",
      "or"
    ],
    [
      "a",
      "t"
    ],
    [
      "s",
      "t"
    ],
    [
      "u",
      "t"
    ],
    [
      "c",
      "t"
    ],
    [
      "n",
      "t"
    ],
    [
      "t",
      "ed"
    ],
    [
      "a",
      "t"
    ],
    [
      "s",
      "t"
    ],
    [
      "u",
      "t"
    ],
    [
      "c",
      "t"
    ],
    [
      "n",
      "t"
    ],
    [
      "p",
      "l"
    ],
    [
      "l",
      "y"
    ],
    [
      "l",
      "a"
    ],
    [
      "l",
      "e"
    ],
    [
      "o",
      "p"
    ],
    [
      "en",
      "c"
    ],
    [
      "c",
      "h"
    ],
    [
      "c",
      "e"
    ],
    [
      "er",
      "v"
    ],
    [
      "v",
      "e"
    ],
    [
      "t",
      "er"
    ],
    [
      "h",
      "er"
    ],
    [
      "Ġc",
      "ook"
    ],
    [
      "Ġ20",
      "2"
    ],
    [
      "r",
      "t"
    ],
    [
      "r",
      "i"
    ],
    [
      "a",
      "r"
    ],
    [
      "u",
      "r"
    ],
    [
      "i",
      "l"
    ],
    [
      "t",
      "r"
    ],
    [
      "Ġw",
      "ill"
    ],
    [
      "Ġ",
      "N"
    ],
    [
      "k",
      "e"
    ],
    [
      "e",
      "l"
    ],
    [
      "ion",
      "s"
    ],
    [
      "t",
      "ion"
    ],
    [
      "s",
      "."
    ],
    [
      "s",
      ","
    ],
    [
      "a",
      "b"
    ],
    [
      "r",
      "a"
    ],
    [
      "t",
      "a"
    ],
    [
      "l",
      "a"
    ],
    [
      "h",
      "a"
    ],
    [
      "b",
      "l"
    ],
    [
      "Ġa",
      "t"
    ],
    [
      "t",
      "a"
    ],
    [
      "t",
      "e"
    ],
    [
      "t",
      "h"
    ],
    [
      "t",
      "r"
    ],
    [
      "e",
      "e"
    ],
    [
      "e",
      "l"
    ],
    [
      "r",
      "e"
    ],
    [
      "l",
      "e"
    ],
    [
      "t",
      "e"
    ],
    [
      "s",
      "e"
    ],
    [
      "Ġ",
      "E"
    ],
    [
      "Ġ",
      "G"
    ],
    [
      "ea",
      "r"
    ],
    [
      "r",
      "a"
    ],
    [
      "r",
      "e"
    ],
    [
      "r",
      "d"
    ],
    [
      "r",
      "y"
    ],
    [
      "r",
      "t"
    ],
    [
      "t",
      "or"
    ],
    [
      "ea",
      "s"
    ],
    [
      "s",
      "t"
    ],
    [
      "s",
      "."
    ],
    [
      "s",
      ","
    ],
    [
      "o",
      "o"
    ],
    [
      "Ġcon",
      "t"
    ],
    [
      "t",
      "a"
    ],
    [
      "t",
      "e"
    ],
    [
      "m",
      "ent"
    ],
    [
      "a",
      "m"
    ],
    [
      "p",
      "l"
    ],
    [
      "Ġc",
      "h"
    ],
    [
      "h",
      "a"
    ],
    [
      "h",
      "er"
    ],
    [
      "Ġ",
      "L"
    ],
    [
      "Ġs",
      "u"
    ],
    [
      "u",
      "r"
    ],
    [
      "u",
      "s"
    ],
    [
      "u",
      "n"
    ],
    [
      "u",
      "l"
    ],
    [
      "l",
      "u"
    ],
    [
      "a",
      "l"
    ],
    [
      "u",
      "r"
    ],
    [
      "e",
      "l"
    ],
    [
      "i",
      "l"
    ],
    [
      "u",
      "s"
    ],
    [
      "u",
      "t"
    ],
    [
      "o",
      "l"
    ],
    [
      "u",
      "n"
    ],
    [
      "b",
      "l"
    ],
    [
      "u",
      "l"
    ],
    [
      "p",
      "l"
    ],
    [
      "Ġc",
      "om"
    ],
    [
      "Ġou",
      "r"
    ],
    [
      "r",
      "a"
    ],
    [
      "Ġ",
      "J"
    ],
    [
      "r",
      "i"
    ],
    [
      "i",
      "p"
    ],
    [
      "a",
      "i"
    ],
    [
      "e",
      "e"
    ],
    [
      "a",
      "in"
    ],
    [
      "r",
      "a"
    ],
    [
      "l",
      "a"
    ],
    [
      "t",
      "a"
    ],
    [
      "m",
      "a"
    ],
    [
      "h",
      "a"
    ],
    [
      "Ġm",
      "a"
    ],
    [
      "bs",
      "it"
    ],
    [
      "t",
      "u"
    ],
    [
      "a",
      "t"
    ],
    [
      "u",
      "r"
    ],
    [
      "s",
      "t"
    ],
    [
      "u",
      "s"
    ],
    [
      "u",
      "t"
    ],
    [
      "n",
      "t"
    ],
    [
      "c",
      "t"
    ],
    [
      "u",
      "n"
    ],
    [
      "u",
      "l"
    ],
    [
      "r",
      "t"
    ],
    [
      "Ġha",
      "v"
    ],
    [
      "n",
      "a"
    ],
    [
      "a",
      "t"
    ],
    [
      "a",
      "n"
    ],
    [
      "a",
      "r"
    ],
    [
      "a",
      "l"
    ],
    [
      "u",
      "n"
    ],
    [
      "a",
      "g"
    ],
    [
      "p",
      "l"
    ],
    [
      "s",
      "e"
    ],
    [
      "Ġ",
      "H"
    ],
    [
      "n",
      "a"
    ],
    [
      "en",
      "d"
    ],
    [
      "t",
      "r"
    ],
    [
      "Ġd",
      "o"
    ],
    [
      "o",
      "l"
    ],
    [
      "a",
      "b"
    ],
    [
      "Ġm",
      "ay"
    ],
    [
      "k",
      "e"
    ],
    [
      "Ġhav",
      "e"
    ],
    [
      "e",
      "y"
    ],
    [
      "Ġth",
      "e"
    ],
    [
      "r",
      "e"
    ],
    [
      "l",
      "e"
    ],
    [
      "Ġb",
      "e"
    ],
    [
      "t",
      "e"
    ],
    [
      "c",
      "e"
    ],
    [
      "g",
      "e"
    ],
    [
      "s",
      "e"
    ],
    [
      "t",
      "ing"
    ],
    [
      "a",
      "t"
    ],
    [
      "s",
      "t"
    ],
    [
      "u",
      "t"
    ],
    [
      "n",
      "t"
    ],
    [
      "c",
      "t"
    ],
    [
      "r",
      "t"
    ],
    [
      "Y",
      "ou"
    ],
    [
      "iv",
      "e"
    ],
    [
      "e",
      "l"
    ],
    [
      "Ġ",
      "U"
    ],
    [
      "o",
      "g"
    ],
    [
      "Ġt",
      "o"
    ],
    [
      "g",
      "e"
    ],
    [
      "o",
      "o"
    ],
    [
      "Ġ",
      "âĢ"
    ],
    [
      "n",
      "s"
    ],
    [
      "a",
      "n"
    ],
    [
      "s",
      "t"
    ],
    [
      "u",
      "n"
    ],
    [
      "s",
      "."
    ],
    [
      "s",
      ","
    ],
    [
      "t",
      "ed"
    ],
    [
      "Ġt",
      "r"
    ],
    [
      "r",
      "a"
    ],
    [
      "r",
      "e"
    ],
    [
      "r",
      "y"
    ],
    [
      "u",
      "a"
    ],
    [
      "a",
      "t"
    ],
    [
      "a",
      "n"
    ],
    [
      "a",
      "r"
    ],
    [
      "a",
      "l"
    ],
    [
      "a",
      "c"
    ],
    [
      "a",
      "s"
    ],
    [
      "a",
      "g"
    ],
    [
      "a",
      "m"
    ],
    [
      "d",
      "er"
    ],
    [
      "n",
      "d"
    ],
    [
      "r",
      "d"
    ],
    [
      "âĢ",
      "Ļ"
    ],
    [
      "Ġan",
      "y"
    ],
    [
      "n",
      "s"
    ],
    [
      "a",
      "d"
    ],
    [
      "r",
      "a"
    ],
    [
      "l",
      "a"
    ],
    [
      "m",
      "a"
    ],
    [
      "Ġm",
      "a"
    ],
    [
      "n",
      "a"
    ],
    [
      "Ġwe",
      "bsit"
    ],
    [
      "o",
      "k"
    ],
    [
      "Ġt",
      "o"
    ],
    [
      "T",
      "h"
    ],
    [
      "h",
      "a"
    ],
    [
      "h",
      "er"
    ],
    [
      "er",
      "a"
    ],
    [
      "a",
      "t"
    ],
    [
      "a",
      "n"
    ],
    [
      "a",
      "r"
    ],
    [
      "a",
      "l"
    ],
    [
      "a",
      "c"
    ],
    [
      "a",
      "s"
    ],
    [
      "a",
      "g"
    ],
    [
      "t",
      "er"
    ],
    [
      "a",
      "i"
    ],
    [
      "a",
      "m"
    ],
    [
      "h",
      "er"
    ],
    [
      "a",
      "b"
    ],
    [
      "or",
      "e"
    ],
    [
      "ou",
      "t"
    ],
    [
      "t",
      "e"
    ],
    [
      "t",
      "h"
    ],
    [
      "t",
      "er"
    ],
    [
      "t",
      "s"
    ],
    [
      "t",
      "r"
    ],
    [
      "Ġac",
      "c"
    ],
    [
      "c",
      "e"
    ],
    [
      "t",
      "u"
    ],
    [
      "Ġu",
      "n"
    ],
    [
      "n",
      "d"
    ],
    [
      "n",
      "c"
    ],
    [
      "n",
      "t"
    ],
    [
      "n",
      "a"
    ],
    [
      "Ġcook",
      "ies"
    ],
    [
      "Ġin",
      "f"
    ],
    [
      "n",
      "s"
    ],
    [
      "p",
      "a"
    ],
    [
      "a",
      "t"
    ],
    [
      "a",
      "n"
    ],
    [
      "a",
      "r"
    ],
    [
      "a",
      "l"
    ],
    [
      "a",
      "c"
    ],
    [
      "a",
      "s"
    ],
    [
      "a",
      "i"
    ],
    [
      "o",
      "p"
    ],
    [
      "a",
      "m"
    ],
    [
      "a",
      "b"
    ],
    [
      "p",
      "r"
    ],
    [
      "r",
      "a"
    ],
    [
      "r",
      "e"
    ],
    [
      "k",
      "e"
    ],
    [
      "n",
      "g"
    ],
    [
      "a",
      "n"
    ],
    [
      "u",
      "n"
    ],
    [
      "g",
      "e"
    ],
    [
      "a",
      "tion"
    ],
    [
      "r",
      "a"
    ],
    [
      "l",
      "a"
    ],
    [
      "t",
      "a"
    ],
    [
      "m",
      "a"
    ],
    [
      "n",
      "a"
    ],
    [
      "n",
      "g"
    ],
    [
      "Ġc",
      "o"
    ],
    [
      "o",
      "l"
    ],
    [
      "o",
      "p"
    ],
    [
      "a",
      "d"
    ],
    [
      "Ġr",
      "e"
    ],
    [
      "Ġfr",
      "om"
    ],
    [
      "i",
      "b"
    ],
    [
      "a",
      "i"
    ],
    [
      "b",
      "l"
    ],
    [
      "er",
      "e"
    ],
    [
      "e",
      "l"
    ],
    [
      "h",
      "er"
    ],
    [
      "c",
      "k"
    ],
    [
      "a",
      "c"
    ],
    [
      "k",
      "e"
    ],
    [
      "i",
      "e"
    ],
    [
      "e",
      "l"
    ],
    [
      "Ġb",
      "u"
    ],
    [
      "u",
      "r"
    ],
    [
      "u",
      "s"
    ],
    [
      "u",
      "t"
    ],
    [
      "u",
      "n"
    ],
    [
      "u",
      "l"
    ],
    [
      "o",
      "ll"
    ],
    [
      "Ġt",
      "o"
    ],
    [
      "i",
      "e"
    ],
    [
      "Ġa",
      "ll"
    ],
    [
      "on",
      "t"
    ],
    [
      "t",
      "a"
    ],
    [
      "t",
      "e"
    ],
    [
      "t",
      "h"
    ],
    [
      "t",
      "er"
    ],
    [
      "t",
      "s"
    ],
    [
      "t",
      "r"
    ],
    [
      "l",
      "ic"
    ],
    [
      "a",
      "l"
    ],
    [
      "e",
      "l"
    ],
    [
      "i",
      "l"
    ],
    [
      "o",
      "l"
    ],
    [
      "u",
      "l"
    ],
    [
      "p",
      "l"
    ],
    [
      "b",
      "l"
    ],
    [
      "a",
      "ll"
    ],
    [
      "r",
      "a"
    ],
    [
      "t",
      "a"
    ],
    [
      "m",
      "a"
    ],
    [
      "h",
      "a"
    ],
    [
      "Ġm",
      "a"
    ],
    [
      "n",
      "a"
    ],
    [
      "ic",
      "e"
    ],
    [
      "e",
      "l"
    ],
    [
      "er",
      "m"
    ],
    [
      "m",
      "a"
    ],
    [
      "t",
      "er"
    ],
    [
      "h",
      "er"
    ],
    [
      "igh",
      "t"
    ],
    [
      "t",
      "a"
    ],
    [
      "t",
      "e"
    ],
    [
      "t",
      "h"
    ],
    [
      "t",
      "er"
    ],
    [
      "t",
      "s"
    ],
    [
      "t",
      "r"
    ],
    [
      "t",
      "ed"
    ],
    [
      "p",
      "a"
    ],
    [
      "Ġw",
      "a"
    ],
    [
      "a",
      "t"
    ],
    [
      "a",
      "n"
    ],
    [
      "a",
      "r"
    ],
    [
      "a",
      "l"
    ],
    [
      "a",
      "s"
    ],
    [
      "a",
      "g"
    ],
    [
      "a",
      "i"
    ],
    [
      "a",
      "d"
    ],
    [
      "T",
      "h"
    ],
    [
      "l",
      "t"
    ],
    [
      "a",
      "l"
    ],
    [
      "e",
      "l"
    ],
    [
      "i",
      "l"
    ],
    [
      "t",
      "a"
    ],
    [
      "t",
      "e"
    ],
    [
      "t",
      "ion"
    ],
    [
      "t",
      "h"
    ],
    [
      "o",
      "l"
    ],
    [
      "t",
      "er"
    ],
    [
      "t",
      "or"
    ],
    [
      "t",
      "r"
    ],
    [
      "t",
      "s"
    ],
    [
      "t",
      "ed"
    ],
    [
      "t",
      "u"
    ],
    [
      "u",
      "l"
    ],
    [
      "d",
      "er"
    ],
    [
      "oa",
      "r"
    ],
    [
      "r",
      "a"
    ],
    [
      "r",
      "e"
    ],
    [
      "r",
      "t"
    ],
    [
      "i",
      "z"
    ],
    [
      "a",
      "i"
    ],
    [
      "oar",
      "d"
    ],
    [
      "d",
      "er"
    ],
    [
      "ia",
      "l"
    ],
    [
      "l",
      "y"
    ],
    [
      "l",
      "a"
    ],
    [
      "l",
      "e"
    ],
    [
      "p",
      "r"
    ],
    [
      "er",
      "e"
    ],
    [
      "ea",
      "t"
    ],
    [
      "t",
      "a"
    ],
    [
      "t",
      "e"
    ],
    [
      "t",
      "ion"
    ],
    [
      "t",
      "h"
    ],
    [
      "t",
      "er"
    ],
    [
      "t",
      "or"
    ],
    [
      "t",
      "r"
    ],
    [
      "t",
      "s"
    ],
    [
      "t",
      "ed"
    ],
    [
      "âĢ",
      "Ŀ"
    ],
    [
      "ĠTh",
      "e"
    ],
    [
      "m",
      "ent"
    ],
    [
      "id",
      "e"
    ],
    [
      "e",
      "l"
    ],
    [
      "ent",
      "s"
    ],
    [
      "s",
      "."
    ],
    [
      "s",
      ","
    ],
    [
      "on",
      "t"
    ],
    [
      "c",
      "k"
    ],
    [
      "Ġ",
      "en"
    ],
    [
      "er",
      "y"
    ],
    [
      "t",
      "er"
    ],
    [
      "h",
      "er"
    ],
    [
      "d",
      "er"
    ],
    [
      "Ġp",
      "ost"
    ],
    [
      "o",
      "ok"
    ],
    [
      "Ġt",
      "o"
    ],
    [
      "p",
      "er"
    ],
    [
      "o",
      "p"
    ],
    [
      "t",
      "u"
    ],
    [
      "ĠI",
      "n"
    ],
    [
      "n",
      "d"
    ],
    [
      "n",
      "c"
    ],
    [
      "n",
      "t"
    ],
    [
      "n",
      "a"
    ],
    [
      "n",
      "g"
    ],
    [
      "n",
      "s"
    ],
    [
      "ist",
      "r"
    ],
    [
      "r",
      "a"
    ],
    [
      "r",
      "y"
    ],
    [
      "k",
      "ing"
    ],
    [
      "r",
      "ou"
    ],
    [
      "a",
      "r"
    ],
    [
      "u",
      "r"
    ],
    [
      "t",
      "r"
    ],
    [
      "p",
      "r"
    ],
    [
      "Ġb",
      "oard"
    ],
    [
      "r",
      "o"
    ],
    [
      "or",
      "m"
    ],
    [
      "l",
      "s"
    ],
    [
      "ĠâĢ",
      "ľ"
    ],
    [
      "erv",
      "ic"
    ],
    [
      "Ġr",
      "es"
    ],
    [
      "ou",
      "t"
    ],
    [
      "a",
      "ll"
    ],
    [
      "Ġp",
      "l"
    ],
    [
      "l",
      "y"
    ],
    [
      "l",
      "e"
    ],
    [
      "l",
      "a"
    ],
    [
      "t",
      "y"
    ],
    [
      "a",
      "t"
    ],
    [
      "s",
      "t"
    ],
    [
      "u",
      "t"
    ],
    [
      "n",
      "t"
    ],
    [
      "r",
      "t"
    ],
    [
      "s",
      "s"
    ],
    [
      "a",
      "s"
    ],
    [
      "u",
      "s"
    ],
    [
      "s",
      ","
    ],
    [
      "o",
      "t"
    ],
    [
      "m",
      "in"
    ],
    [
      "a",
      "m"
    ],
    [
      "es",
      "e"
    ],
    [
      "e",
      "e"
    ],
    [
      "T",
      "o"
    ],
    [
      "o",
      "l"
    ],
    [
      "o",
      "p"
    ],
    [
      "o",
      "t"
    ],
    [
      "t",
      "ing"
    ],
    [
      "Ġp",
      "a"
    ],
    [
      "c",
      "k"
    ],
    [
      "Ġt",
      "im"
    ],
    [
      "s",
      "s"
    ],
    [
      "om",
      "e"
    ],
    [
      "e",
      "l"
    ],
    [
      "es",
      ","
    ],
    [
      "es",
      "."
    ],
    [
      "on",
      "s"
    ],
    [
      "s",
      "t"
    ],
    [
      "s",
      "."
    ],
    [
      "s",
      ","
    ],
    [
      "s",
      "e"
    ],
    [
      "er",
      "t"
    ],
    [
      "t",
      "a"
    ],
    [
      "t",
      "e"
    ],
    [
      "t",
      "ion"
    ],
    [
      "t",
      "h"
    ],
    [
      "h",
      "er"
    ],
    [
      "t",
      "er"
    ],
    [
      "t",
      "or"
    ],
    [
      "t",
      "r"
    ],
    [
      "t",
      "s"
    ],
    [
      "t",
      "ed"
    ],
    [
      "d",
      "er"
    ],
    [
      "t",
      "u"
    ],
    [
      "t",
      "ing"
    ],
    [
      "c",
      "r"
    ],
    [
      "a",
      "c"
    ],
    [
      "r",
      "a"
    ],
    [
      "r",
      "e"
    ],
    [
      "n",
      "c"
    ],
    [
      "r",
      "y"
    ],
    [
      "r",
      "o"
    ],
    [
      "s",
      "u"
    ],
    [
      "u",
      "r"
    ],
    [
      "a",
      "s"
    ],
    [
      "u",
      "s"
    ],
    [
      "u",
      "t"
    ],
    [
      "u",
      "n"
    ],
    [
      "t",
      "s"
    ],
    [
      "u",
      "l"
    ],
    [
      "n",
      "s"
    ],
    [
      "s",
      "s"
    ],
    [
      "r",
      "d"
    ],
    [
      "Ġd",
      "o"
    ],
    [
      "ĠP",
      "r"
    ],
    [
      "r",
      "a"
    ],
    [
      "r",
      "e"
    ],
    [
      "r",
      "y"
    ],
    [
      "a",
      "tion"
    ],
    [
      "u",
      "a"
    ],
    [
      "Ġ",
      "You"
    ],
    [
      "m",
      "in"
    ],
    [
      "Ġus",
      "er"
    ],
    [
      "ĠW",
      "e"
    ],
    [
      "e",
      "l"
    ],
    [
      "e",
      "e"
    ],
    [
      "istr",
      "a"
    ],
    [
      "a",
      "n"
    ],
    [
      "a",
      "t"
    ],
    [
      "a",
      "r"
    ],
    [
      "a",
      "l"
    ],
    [
      "a",
      "c"
    ],
    [
      "a",
      "tion"
    ],
    [
      "Ġs",
      "p"
    ],
    [
      "p",
      "l"
    ],
    [
      "p",
      "r"
    ],
    [
      "p",
      "a"
    ],
    [
      "Ġ",
      "o"
    ],
    [
      "Ġa",
      "b"
    ],
    [
      "b",
      "l"
    ],
    [
      "T",
      "o"
    ],
    [
      "h",
      "e"
    ],
    [
      "T",
      "h"
    ],
    [
      "Ġf",
      "u"
    ],
    [
      "u",
      "r"
    ],
    [
      "u",
      "s"
    ],
    [
      "u",
      "t"
    ],
    [
      "u",
      "n"
    ],
    [
      "u",
      "l"
    ],
    [
      "on",
      "s"
    ],
    [
      "h",
      "e"
    ],
    [
      "Ġc",
      "l"
    ],
    [
      "l",
      "e"
    ],
    [
      "l",
      "a"
    ],
    [
      "a",
      "v"
    ],
    [
      "r",
      "a"
    ],
    [
      "l",
      "a"
    ],
    [
      "h",
      "a"
    ],
    [
      "Ġr",
      "ec"
    ],
    [
      "Ġs",
      "u"
    ],
    [
      "Ġd",
      "a"
    ],
    [
      "a",
      "n"
    ],
    [
      "a",
      "t"
    ],
    [
      "a",
      "r"
    ],
    [
      "a",
      "l"
    ],
    [
      "a",
      "c"
    ],
    [
      "a",
      "s"
    ],
    [
      "a",
      "g"
    ],
    [
      "a",
      "i"
    ],
    [
      "a",
      "m"
    ],
    [
      "a",
      "b"
    ],
    [
      "a",
      "d"
    ],
    [
      "a",
      "ll"
    ],
    [
      "a",
      "k"
    ],
    [
      "r",
      "a"
    ],
    [
      "t",
      "a"
    ],
    [
      "l",
      "a"
    ],
    [
      "m",
      "a"
    ],
    [
      "h",
      "a"
    ],
    [
      "Ġm",
      "a"
    ],
    [
      "n",
      "a"
    ],
    [
      "k",
      "e"
    ],
    [
      "u",
      "a"
    ],
    [
      "Ġ",
      "im"
    ],
    [
      "r",
      "n"
    ],
    [
      "a",
      "r"
    ],
    [
      "u",
      "r"
    ],
    [
      "n",
      "t"
    ],
    [
      "t",
      "r"
    ],
    [
      "n",
      "a"
    ],
    [
      "n",
      "s"
    ],
    [
      "in",
      "e"
    ],
    [
      "e",
      "l"
    ],
    [
      "e",
      "e"
    ],
    [
      "m",
      "in"
    ],
    [
      "istra",
      "t"
    ],
    [
      "t",
      "ion"
    ],
    [
      "Ġex",
      "p"
    ],
    [
      "p",
      "l"
    ],
    [
      "p",
      "r"
    ],
    [
      "p",
      "a"
    ],
    [
      "r",
      "c"
    ],
    [
      "a",
      "r"
    ],
    [
      "u",
      "r"
    ],
    [
      "c",
      "h"
    ],
    [
      "c",
      "t"
    ],
    [
      "c",
      "e"
    ],
    [
      "Ġ",
      "us"
    ],
    [
      "r",
      "o"
    ],
    [
      "Ġad",
      "d"
    ],
    [
      "d",
      "er"
    ],
    [
      "or",
      "s"
    ],
    [
      "s",
      "t"
    ],
    [
      "s",
      "."
    ],
    [
      "s",
      ","
    ],
    [
      "s",
      "e"
    ],
    [
      "ot",
      "h"
    ],
    [
      "h",
      "er"
    ],
    [
      "h",
      "e"
    ],
    [
      "ig",
      "n"
    ],
    [
      "n",
      "t"
    ],
    [
      "n",
      "a"
    ],
    [
      "n",
      "s"
    ],
    [
      "e",
      "qu"
    ],
    [
      "r",
      "e"
    ],
    [
      "l",
      "e"
    ],
    [
      "t",
      "e"
    ],
    [
      "s",
      "e"
    ],
    [
      "er",
      "e"
    ],
    [
      "h",
      "e"
    ],
    [
      "Ġd",
      "e"
    ],
    [
      "e",
      "l"
    ],
    [
      "e",
      "e"
    ],
    [
      "Ġcon",
      "s"
    ],
    [
      "s",
      "t"
    ],
    [
      "s",
      "."
    ],
    [
      "s",
      ","
    ],
    [
      "s",
      "e"
    ],
    [
      "Ġp",
      "u"
    ],
    [
      "u",
      "r"
    ],
    [
      "u",
      "s"
    ],
    [
      "u",
      "t"
    ],
    [
      "u",
      "n"
    ],
    [
      "u",
      "l"
    ],
    [
      "ĠM",
      "a"
    ],
    [
      "a",
      "n"
    ],
    [
      "a",
      "t"
    ],
    [
      "a",
      "r"
    ],
    [
      "a",
      "l"
    ],
    [
      "a",
      "c"
    ],
    [
      "a",
      "s"
    ],
    [
      "a",
      "g"
    ],
    [
      "a",
      "i"
    ],
    [
      "a",
      "m"
    ],
    [
      "a",
      "b"
    ],
    [
      "a",
      "d"
    ],
    [
      "a",
      "ll"
    ],
    [
      "ll",
      "y"
    ],
    [
      "ea",
      "d"
    ],
    [
      "d",
      "er"
    ],
    [
      "Ġb",
      "a"
    ],
    [
      "a",
      "n"
    ],
    [
      "a",
      "t"
    ],
    [
      "a",
      "r"
    ],
    [
      "a",
      "l"
    ],
    [
      "a",
      "c"
    ],
    [
      "a",
      "s"
    ],
    [
      "a",
      "g"
    ],
    [
      "a",
      "i"
    ],
    [
      "a",
      "m"
    ],
    [
      "a",
      "b"
    ],
    [
      "a",
      "d"
    ],
    [
      "v",
      "a"
    ],
    [
      "a",
      "n"
    ],
    [
      "a",
      "t"
    ],
    [
      "a",
      "r"
    ],
    [
      "a",
      "l"
    ],
    [
      "a",
      "c"
    ],
    [
      "a",
      "s"
    ],
    [
      "a",
      "i"
    ],
    [
      "Ġa",
      "l"
    ],
    [
      "l",
      "s"
    ],
    [
      "r",
      "i"
    ],
    [
      "ess",
      "a"
    ],
    [
      "a",
      "n"
    ],
    [
      "a",
      "t"
    ],
    [
      "a",
      "r"
    ],
    [
      "a",
      "l"
    ],
    [
      "a",
      "i"
    ],
    [
      "a",
      "g"
    ],
    [
      "a",
      "d"
    ],
    [
      "en",
      "s"
    ],
    [
      "s",
      "t"
    ],
    [
      "s",
      "."
    ],
    [
      "s",
      ","
    ],
    [
      "s",
      "e"
    ],
    [
      "em",
      "ber"
    ],
    [
      "e",
      "ed"
    ],
    [
      "r",
      "e"
    ],
    [
      "l",
      "e"
    ],
    [
      "t",
      "e"
    ],
    [
      "c",
      "e"
    ],
    [
      "s",
      "e"
    ],
    [
      "h",
      "e"
    ],
    [
      "Ġ",
      "k"
    ],
    [
      "k",
      "e"
    ],
    [
      "ĠC",
      "on"
    ],
    [
      "Ġad",
      "m"
    ],
    [
      "ou",
      "r"
    ],
    [
      "t",
      "y"
    ],
    [
      "W",
      "h"
    ],
    [
      "h",
      "a"
    ],
    [
      "h",
      "er"
    ],
    [
      "h",
      "e"
    ],
    [
      "in",
      "istrat"
    ],
    [
      "Ġw",
      "or"
    ],
    [
      "or",
      "e"
    ],
    [
      "or",
      "m"
    ],
    [
      "Ġm",
      "y"
    ],
    [
      "oun",
      "t"
    ],
    [
      "t",
      "a"
    ],
    [
      "t",
      "er"
    ],
    [
      "t",
      "r"
    ],
    [
      "t",
      "s"
    ],
    [
      "t",
      "ed"
    ],
    [
      "t",
      "ing"
    ],
    [
      "Ġpr",
      "ov"
    ],
    [
      "ic",
      "h"
    ],
    [
      "h",
      "a"
    ],
    [
      "h",
      "er"
    ],
    [
      "h",
      "e"
    ],
    [
      "c",
      "r"
    ],
    [
      "Ġs",
      "o"
    ],
    [
      "o",
      "l"
    ],
    [
      "o",
      "p"
    ],
    [
      "Ġst",
      "or"
    ],
    [
      "or",
      "m"
    ],
    [
      "or",
      "e"
    ],
    [
      "Ġd",
      "is"
    ],
    [
      "k",
      "s"
    ],
    [
      "s",
      "t"
    ],
    [
      "s",
      "."
    ],
    [
      "s",
      ","
    ],
    [
      "c",
      "k"
    ],
    [
      "Ġadm",
      "inistrat"
    ],
    [
      "m",
      "ent"
    ],
    [
      "t",
      "o"
    ],
    [
      "c",
      "t"
    ],
    [
      "o",
      "l"
    ],
    [
      "n",
      "t"
    ],
    [
      "in",
      "e"
    ],
    [
      "Ġcom",
      "p"
    ],
    [
      "p",
      "l"
    ],
    [
      "p",
      "r"
    ],
    [
      "in",
      "a"
    ],
    [
      "a",
      "n"
    ],
    [
      "a",
      "t"
    ],
    [
      "a",
      "r"
    ],
    [
      "a",
      "l"
    ],
    [
      "a",
      "c"
    ],
    [
      "a",
      "s"
    ],
    [
      "a",
      "m"
    ],
    [
      "a",
      "g"
    ],
    [
      "a",
      "b"
    ],
    [
      "a",
      "d"
    ],
    [
      "a",
      "tion"
    ],
    [
      "v",
      "a"
    ],
    [
      "Ġus",
      "e"
    ],
    [
      "bl",
      "e"
    ],
    [
      "Ġa",
      "g"
    ],
    [
      "g",
      "e"
    ],
    [
      "t",
      "o"
    ],
    [
      "Ġon",
      "l"
    ],
    [
      "l",
      "y"
    ],
    [
      "Ġc",
      "r"
    ],
    [
      "r",
      "a"
    ],
    [
      "r",
      "e"
    ],
    [
      "r",
      "y"
    ],
    [
      "r",
      "o"
    ],
    [
      "r",
      "i"
    ],
    [
      "Ġin",
      "c"
    ],
    [
      "c",
      "h"
    ],
    [
      "in",
      "d"
    ],
    [
      "d",
      "er"
    ],
    [
      "p",
      "a"
    ],
    [
      "Ġtr",
      "a"
    ],
    [
      "a",
      "n"
    ],
    [
      "a",
      "t"
    ],
    [
      "a",
      "c"
    ],
    [
      "a",
      "s"
    ],
    [
      "a",
      "i"
    ],
    [
      "a",
      "m"
    ],
    [
      "a",
      "g"
    ],
    [
      "a",
      "d"
    ],
    [
      "p",
      "t"
    ],
    [
      "t",
      "a"
    ],
    [
      "t",
      "e"
    ],
    [
      "t",
      "ion"
    ],
    [
      "o",
      "p"
    ],
    [
      "t",
      "er"
    ],
    [
      "t",
      "r"
    ],
    [
      "t",
      "s"
    ],
    [
      "t",
      "ed"
    ],
    [
      "t",
      "u"
    ],
    [
      "t",
      "ing"
    ],
    [
      "t",
      "o"
    ],
    [
      "t",
      "y"
    ],
    [
      "Ġl",
      "a"
    ],
    [
      "a",
      "n"
    ],
    [
      "a",
      "t"
    ],
    [
      "a",
      "r"
    ],
    [
      "a",
      "l"
    ],
    [
      "a",
      "c"
    ],
    [
      "a",
      "s"
    ],
    [
      "a",
      "i"
    ],
    [
      "a",
      "m"
    ],
    [
      "a",
      "g"
    ],
    [
      "a",
      "b"
    ],
    [
      "a",
      "d"
    ],
    [
      "t",
      "ions"
    ],
    [
      "a",
      "t"
    ],
    [
      "u",
      "t"
    ],
    [
      "c",
      "t"
    ],
    [
      "o",
      "t"
    ],
    [
      "ĠI",
      "f"
    ],
    [
      "Ġa",
      "l"
    ],
    [
      "Ġb",
      "r"
    ],
    [
      "r",
      "a"
    ],
    [
      "r",
      "e"
    ],
    [
      "r",
      "y"
    ],
    [
      "r",
      "o"
    ],
    [
      "r",
      "i"
    ],
    [
      "Ġn",
      "o"
    ],
    [
      "Ġ",
      "if"
    ],
    [
      "Ġa",
      "pp"
    ],
    [
      "ed",
      "."
    ],
    [
      "t",
      "ed"
    ],
    [
      "Ġha",
      "s"
    ],
    [
      "s",
      "t"
    ],
    [
      "s",
      "."
    ],
    [
      "s",
      ","
    ],
    [
      "s",
      "s"
    ],
    [
      "r",
      "n"
    ],
    [
      "Ġd",
      "e"
    ],
    [
      "Ġin",
      "t"
    ],
    [
      "t",
      "a"
    ],
    [
      "t",
      "e"
    ],
    [
      "t",
      "er"
    ],
    [
      "t",
      "r"
    ],
    [
      "t",
      "s"
    ],
    [
      "t",
      "u"
    ],
    [
      "Ġch",
      "a"
    ],
    [
      "a",
      "n"
    ],
    [
      "a",
      "t"
    ],
    [
      "a",
      "r"
    ],
    [
      "a",
      "l"
    ],
    [
      "a",
      "s"
    ],
    [
      "a",
      "m"
    ],
    [
      "a",
      "d"
    ],
    [
      "eas",
      "e"
    ],
    [
      "e",
      "l"
    ],
    [
      "ou",
      "s"
    ],
    [
      "s",
      "t"
    ],
    [
      "s",
      "."
    ],
    [
      "s",
      ","
    ],
    [
      "s",
      "e"
    ],
    [
      "s",
      "s"
    ],
    [
      "Ġw",
      "a"
    ],
    [
      "l",
      "ity"
    ],
    [
      "a",
      "l"
    ],
    [
      "e",
      "l"
    ],
    [
      "i",
      "l"
    ],
    [
      "o",
      "l"
    ],
    [
      "Ġs",
      "e"
    ],
    [
      "e",
      "l"
    ],
    [
      "e",
      "e"
    ],
    [
      "n",
      "e"
    ],
    [
      "a",
      "n"
    ],
    [
      "e",
      "l"
    ],
    [
      "u",
      "n"
    ],
    [
      "ow",
      "n"
    ],
    [
      "n",
      "d"
    ],
    [
      "n",
      "t"
    ],
    [
      "n",
      "g"
    ],
    [
      "n",
      "s"
    ],
    [
      "o",
      "t"
    ],
    [
      "t",
      "om"
    ],
    [
      "a",
      "t"
    ],
    [
      "s",
      "t"
    ],
    [
      "c",
      "t"
    ],
    [
      "u",
      "t"
    ],
    [
      "n",
      "t"
    ],
    [
      "c",
      "r"
    ],
    [
      "Ġt",
      "a"
    ],
    [
      "a",
      "n"
    ],
    [
      "a",
      "t"
    ],
    [
      "a",
      "r"
    ],
    [
      "a",
      "l"
    ],
    [
      "a",
      "c"
    ],
    [
      "a",
      "s"
    ],
    [
      "a",
      "i"
    ],
    [
      "a",
      "m"
    ],
    [
      "a",
      "g"
    ],
    [
      "a",
      "b"
    ],
    [
      "a",
      "d"
    ],
    [
      "Ġ",
      "-"
    ],
    [
      "ĠS",
      "t"
    ],
    [
      "t",
      "a"
    ],
    [
      "t",
      "e"
    ],
    [
      "t",
      "er"
    ],
    [
      "t",
      "r"
    ],
    [
      "t",
      "u"
    ],
    [
      "t",
      "ing"
    ],
    [
      "t",
      "y"
    ],
    [
      "Ġa",
      "nd"
    ],
    [
      "d",
      "ing"
    ],
    [
      "n",
      "d"
    ],
    [
      "a",
      "d"
    ],
    [
      "r",
      "d"
    ],
    [
      "n",
      "e"
    ],
    [
      "d",
      "s"
    ],
    [
      "s",
      "t"
    ],
    [
      "n",
      "d"
    ],
    [
      "s",
      "."
    ],
    [
      "s",
      ","
    ],
    [
      "s",
      "e"
    ],
    [
      "a",
      "d"
    ],
    [
      "r",
      "d"
    ],
    [
      "Ġwebsit",
      "e"
    ],
    [
      "iv",
      "a"
    ],
    [
      "a",
      "n"
    ],
    [
      "a",
      "t"
    ],
    [
      "a",
      "r"
    ],
    [
      "a",
      "l"
    ],
    [
      "a",
      "c"
    ],
    [
      "a",
      "s"
    ],
    [
      "a",
      "m"
    ],
    [
      "a",
      "b"
    ],
    [
      "a",
      "d"
    ],
    [
      "a",
      "tion"
    ],
    [
      "g",
      "h"
    ],
    [
      "h",
      "a"
    ],
    [
      "a",
      "g"
    ],
    [
      "n",
      "g"
    ],
    [
      "h",
      "e"
    ],
    [
      "y",
      "."
    ],
    [
      "l",
      "y"
    ],
    [
      "r",
      "y"
    ],
    [
      "t",
      "y"
    ],
    [
      "i",
      "ew"
    ],
    [
      "r",
      "i"
    ],
    [
      "Ġ",
      "em"
    ],
    [
      "Ġu",
      "p"
    ],
    [
      "p",
      "l"
    ],
    [
      "p",
      "r"
    ],
    [
      "t",
      "ic"
    ],
    [
      "a",
      "t"
    ],
    [
      "s",
      "t"
    ],
    [
      "c",
      "t"
    ],
    [
      "u",
      "t"
    ],
    [
      "n",
      "t"
    ],
    [
      "r",
      "t"
    ],
    [
      "o",
      "t"
    ],
    [
      "a",
      "ll"
    ],
    [
      "W",
      "h"
    ],
    [
      "f",
      "f"
    ],
    [
      "Ġf",
      "a"
    ],
    [
      "a",
      "n"
    ],
    [
      "a",
      "t"
    ],
    [
      "a",
      "r"
    ],
    [
      "a",
      "l"
    ],
    [
      "a",
      "c"
    ],
    [
      "a",
      "s"
    ],
    [
      "a",
      "i"
    ],
    [
      "a",
      "m"
    ],
    [
      "a",
      "g"
    ],
    [
      "a",
      "b"
    ],
    [
      "a",
      "d"
    ],
    [
      "ay",
      "s"
    ],
    [
      "s",
      "t"
    ],
    [
      "s",
      "."
    ],
    [
      "s",
      ","
    ],
    [
      "s",
      "e"
    ],
    [
      "i",
      "enc"
    ],
    [
      "r",
      "i"
    ],
    [
      "e",
      "ll"
    ],
    [
      "r",
      "e"
    ],
    [
      "Ġb",
      "e"
    ],
    [
      "t",
      "e"
    ],
    [
      "c",
      "e"
    ],
    [
      "i",
      "e"
    ],
    [
      "s",
      "e"
    ],
    [
      "er",
      "e"
    ],
    [
      "or",
      "e"
    ],
    [
      "k",
      "e"
    ],
    [
      "h",
      "e"
    ],
    [
      "Ġd",
      "e"
    ],
    [
      "n",
      "e"
    ],
    [
      "n",
      "y"
    ],
    [
      "a",
      "n"
    ],
    [
      "u",
      "n"
    ],
    [
      "uc",
      "t"
    ],
    [
      "t",
      "a"
    ],
    [
      "t",
      "e"
    ],
    [
      "t",
      "ion"
    ],
    [
      "t",
      "ed"
    ],
    [
      "t",
      "s"
    ],
    [
      "t",
      "u"
    ],
    [
      "t",
      "ing"
    ],
    [
      "d",
      "e"
    ],
    [
      "a",
      "d"
    ],
    [
      "Ġ",
      "V"
    ],
    [
      "d",
      "a"
    ],
    [
      "a",
      "n"
    ],
    [
      "a",
      "t"
    ],
    [
      "a",
      "r"
    ],
    [
      "a",
      "l"
    ],
    [
      "n",
      "d"
    ],
    [
      "a",
      "g"
    ],
    [
      "a",
      "b"
    ],
    [
      "a",
      "d"
    ],
    [
      "a",
      "tion"
    ],
    [
      "Ġ",
      "j"
    ],
    [
      "a",
      "ll"
    ],
    [
      "ou",
      "ld"
    ],
    [
      "Ġto",
      "p"
    ],
    [
      "Ġs",
      "a"
    ],
    [
      "a",
      "n"
    ],
    [
      "a",
      "t"
    ],
    [
      "a",
      "r"
    ],
    [
      "a",
      "l"
    ],
    [
      "a",
      "c"
    ],
    [
      "a",
      "s"
    ],
    [
      "a",
      "i"
    ],
    [
      "a",
      "g"
    ],
    [
      "a",
      "m"
    ],
    [
      "a",
      "b"
    ],
    [
      "a",
      "d"
    ],
    [
      "Ġadministrat",
      "or"
    ],
    [
      "d",
      "e"
    ],
    [
      "t",
      "t"
    ],
    [
      "a",
      "t"
    ],
    [
      "t",
      "a"
    ],
    [
      "t",
      "e"
    ],
    [
      "t",
      "h"
    ],
    [
      "u",
      "t"
    ],
    [
      "r",
      "t"
    ],
    [
      "t",
      "er"
    ],
    [
      "t",
      "r"
    ],
    [
      "ou",
      "t"
    ],
    [
      "t",
      "ing"
    ],
    [
      "o",
      "t"
    ],
    [
      "f",
      "er"
    ],
    [
      "er",
      "e"
    ],
    [
      "r",
      "ess"
    ],
    [
      "t",
      "r"
    ],
    [
      "p",
      "r"
    ],
    [
      "Ġp",
      "h"
    ],
    [
      "h",
      "a"
    ],
    [
      "Ġs",
      "et"
    ],
    [
      "on",
      "t"
    ],
    [
      "e",
      "b"
    ],
    [
      "r",
      "e"
    ],
    [
      "l",
      "e"
    ],
    [
      "t",
      "e"
    ],
    [
      "c",
      "e"
    ],
    [
      "g",
      "e"
    ],
    [
      "e",
      "e"
    ],
    [
      "b",
      "l"
    ],
    [
      "i",
      "e"
    ],
    [
      "s",
      "e"
    ],
    [
      "er",
      "e"
    ],
    [
      "k",
      "e"
    ],
    [
      "h",
      "e"
    ],
    [
      "Ġd",
      "e"
    ],
    [
      "n",
      "e"
    ],
    [
      "d",
      "e"
    ],
    [
      "d",
      "a"
    ],
    [
      "Ġ",
      "op"
    ],
    [
      "or",
      "d"
    ],
    [
      "d",
      "er"
    ],
    [
      "r",
      "ing"
    ],
    [
      "a",
      "r"
    ],
    [
      "u",
      "r"
    ],
    [
      "t",
      "r"
    ],
    [
      "p",
      "r"
    ],
    [
      "ou",
      "r"
    ],
    [
      "s",
      "er"
    ],
    [
      "u",
      "s"
    ],
    [
      "a",
      "s"
    ],
    [
      "on",
      "s"
    ],
    [
      "r",
      "es"
    ],
    [
      "a",
      "r"
    ],
    [
      "u",
      "r"
    ],
    [
      "t",
      "r"
    ],
    [
      "p",
      "r"
    ],
    [
      "i",
      "k"
    ],
    [
      "a",
      "i"
    ],
    [
      "r",
      "i"
    ],
    [
      "ep",
      "t"
    ],
    [
      "t",
      "a"
    ],
    [
      "t",
      "e"
    ],
    [
      "t",
      "h"
    ],
    [
      "t",
      "ion"
    ],
    [
      "t",
      "er"
    ],
    [
      "t",
      "r"
    ],
    [
      "t",
      "ed"
    ],
    [
      "t",
      "s"
    ],
    [
      "t",
      "u"
    ],
    [
      "t",
      "ing"
    ],
    [
      "om",
      "e"
    ],
    [
      "Ġ",
      "ev"
    ],
    [
      "Ġtim",
      "e"
    ],
    [
      "e",
      "l"
    ],
    [
      "ers",
      "on"
    ],
    [
      "d",
      "a"
    ],
    [
      "es",
      "e"
    ],
    [
      "s",
      "u"
    ],
    [
      "Ġinf",
      "or"
    ],
    [
      "Ġwh",
      "ich"
    ],
    [
      "on",
      "s"
    ],
    [
      "Ġ",
      "e"
    ],
    [
      "o",
      "b"
    ],
    [
      "Ġt",
      "o"
    ],
    [
      "b",
      "l"
    ],
    [
      "Ġ",
      "o"
    ],
    [
      "r",
      "o"
    ],
    [
      "t",
      "t"
    ],
    [
      "a",
      "p"
    ],
    [
      "r",
      "a"
    ],
    [
      "l",
      "a"
    ],
    [
      "m",
      "a"
    ],
    [
      "h",
      "a"
    ],
    [
      "Ġm",
      "a"
    ],
    [
      "n",
      "a"
    ],
    [
      "p",
      "l"
    ],
    [
      "Ġp",
      "a"
    ],
    [
      "u",
      "a"
    ],
    [
      "p",
      "r"
    ],
    [
      "p",
      "a"
    ],
    [
      "d",
      "a"
    ],
    [
      "u",
      "g"
    ],
    [
      "g",
      "e"
    ],
    [
      "Ġs",
      "u"
    ],
    [
      "e",
      "en"
    ],
    [
      "r",
      "e"
    ],
    [
      "l",
      "e"
    ],
    [
      "Ġb",
      "e"
    ],
    [
      "t",
      "e"
    ],
    [
      "s",
      "e"
    ],
    [
      "or",
      "e"
    ],
    [
      "h",
      "e"
    ],
    [
      "n",
      "e"
    ],
    [
      "d",
      "e"
    ],
    [
      "es",
      "e"
    ],
    [
      "Ġ",
      "e"
    ],
    [
      "ĠTh",
      "is"
    ],
    [
      "c",
      "tion"
    ],
    [
      "a",
      "c"
    ],
    [
      "n",
      "c"
    ],
    [
      "t",
      "es"
    ],
    [
      "a",
      "t"
    ],
    [
      "s",
      "t"
    ],
    [
      "u",
      "t"
    ],
    [
      "n",
      "t"
    ],
    [
      "r",
      "t"
    ],
    [
      "ou",
      "t"
    ],
    [
      "o",
      "t"
    ],
    [
      "on",
      "t"
    ],
    [
      "t",
      "t"
    ],
    [
      "Ġg",
      "r"
    ],
    [
      "r",
      "e"
    ],
    [
      "r",
      "a"
    ],
    [
      "r",
      "o"
    ],
    [
      "r",
      "i"
    ],
    [
      "ic",
      "s"
    ],
    [
      "s",
      "."
    ],
    [
      "s",
      ","
    ],
    [
      "s",
      "s"
    ],
    [
      "Ġh",
      "e"
    ],
    [
      "e",
      "l"
    ],
    [
      "e",
      "e"
    ],
    [
      "Ġr",
      "e"
    ],
    [
      "u",
      "d"
    ],
    [
      "d",
      "er"
    ],
    [
      "t",
      "u"
    ],
    [
      "Ġs",
      "u"
    ],
    [
      "s",
      "u"
    ],
    [
      "d",
      "a"
    ],
    [
      "d",
      "e"
    ],
    [
      "os",
      "e"
    ],
    [
      "e",
      "l"
    ],
    [
      "g",
      "es"
    ],
    [
      "a",
      "g"
    ],
    [
      "n",
      "g"
    ],
    [
      "Ġinfor",
      "m"
    ],
    [
      "m",
      "a"
    ],
    [
      "Ġacc",
      "ess"
    ],
    [
      "Ġs",
      "o"
    ],
    [
      "Ġor",
      "d"
    ],
    [
      "Ġ",
      "qu"
    ],
    [
      "it",
      "ion"
    ],
    [
      "ic",
      "k"
    ],
    [
      "p",
      "s"
    ],
    [
      "s",
      "t"
    ],
    [
      "o",
      "p"
    ],
    [
      "s",
      "."
    ],
    [
      "s",
      ","
    ],
    [
      "s",
      "e"
    ],
    [
      "s",
      "u"
    ],
    [
      "ov",
      "er"
    ],
    [
      "er",
      "e"
    ],
    [
      ".",
      "."
    ],
    [
      "s",
      "."
    ],
    [
      "ing",
      "s"
    ],
    [
      "s",
      "t"
    ],
    [
      "s",
      "."
    ],
    [
      "s",
      ","
    ],
    [
      "t",
      "ing"
    ],
    [
      "Ġou",
      "t"
    ],
    [
      "t",
      "a"
    ],
    [
      "t",
      "er"
    ],
    [
      "t",
      "r"
    ],
    [
      "t",
      "s"
    ],
    [
      "t",
      "ing"
    ],
    [
      "Ġc",
      "u"
    ],
    [
      "u",
      "r"
    ],
    [
      "u",
      "s"
    ],
    [
      "u",
      "t"
    ],
    [
      "u",
      "n"
    ],
    [
      "u",
      "l"
    ],
    [
      "u",
      "a"
    ],
    [
      "g",
      "h"
    ],
    [
      "Ġst",
      "a"
    ],
    [
      "a",
      "n"
    ],
    [
      "a",
      "t"
    ],
    [
      "a",
      "r"
    ],
    [
      "a",
      "l"
    ],
    [
      "a",
      "c"
    ],
    [
      "a",
      "m"
    ],
    [
      "a",
      "g"
    ],
    [
      "a",
      "b"
    ],
    [
      "a",
      "d"
    ],
    [
      "a",
      "tion"
    ],
    [
      "a",
      "ll"
    ],
    [
      "ĠC",
      "a"
    ],
    [
      "a",
      "n"
    ],
    [
      "a",
      "t"
    ],
    [
      "a",
      "r"
    ],
    [
      "a",
      "l"
    ],
    [
      "a",
      "c"
    ],
    [
      "a",
      "s"
    ],
    [
      "a",
      "g"
    ],
    [
      "a",
      "m"
    ],
    [
      "a",
      "b"
    ],
    [
      "a",
      "d"
    ],
    [
      "a",
      "ll"
    ],
    [
      "Ġ",
      "3"
    ],
    [
      "r",
      "c"
    ],
    [
      "er",
      "f"
    ],
    [
      "t",
      "er"
    ],
    [
      "h",
      "er"
    ],
    [
      "âĢĻ",
      "s"
    ],
    [
      "s",
      "t"
    ],
    [
      "s",
      "."
    ],
    [
      "s",
      ","
    ],
    [
      "s",
      "u"
    ],
    [
      "et",
      "h"
    ],
    [
      "h",
      "a"
    ],
    [
      "h",
      "er"
    ],
    [
      "h",
      "e"
    ],
    [
      "iv",
      "e"
    ],
    [
      "s",
      "er"
    ],
    [
      "r",
      "k"
    ],
    [
      "a",
      "r"
    ],
    [
      "u",
      "r"
    ],
    [
      "is",
      "it"
    ],
    [
      "r",
      "r"
    ],
    [
      "a",
      "r"
    ],
    [
      "u",
      "r"
    ],
    [
      "r",
      "e"
    ],
    [
      "r",
      "a"
    ],
    [
      "r",
      "y"
    ],
    [
      "r",
      "o"
    ],
    [
      "r",
      "i"
    ],
    [
      "orm",
      "a"
    ],
    [
      "a",
      "n"
    ],
    [
      "a",
      "t"
    ],
    [
      "a",
      "l"
    ],
    [
      "a",
      "c"
    ],
    [
      "a",
      "s"
    ],
    [
      "a",
      "tion"
    ],
    [
      "Ġ",
      "&"
    ],
    [
      "Ġm",
      "or"
    ],
    [
      "er",
      ","
    ],
    [
      "t",
      "er"
    ],
    [
      "h",
      "er"
    ],
    [
      "s",
      "er"
    ],
    [
      "y",
      ","
    ],
    [
      "l",
      "y"
    ],
    [
      "r",
      "y"
    ],
    [
      "t",
      "y"
    ],
    [
      "W",
      "e"
    ],
    [
      "e",
      "l"
    ],
    [
      "e",
      "e"
    ],
    [
      "ĠP",
      "a"
    ],
    [
      "a",
      "n"
    ],
    [
      "a",
      "t"
    ],
    [
      "a",
      "r"
    ],
    [
      "a",
      "l"
    ],
    [
      "a",
      "c"
    ],
    [
      "a",
      "s"
    ],
    [
      "a",
      "i"
    ],
    [
      "a",
      "g"
    ],
    [
      "a",
      "m"
    ],
    [
      "a",
      "b"
    ],
    [
      "a",
      "d"
    ],
    [
      "a",
      "ll"
    ],
    [
      "Ġr",
      "eg"
    ],
    [
      "Ġr",
      "equ"
    ],
    [
      "b",
      "a"
    ],
    [
      "a",
      "n"
    ],
    [
      "a",
      "t"
    ],
    [
      "a",
      "r"
    ],
    [
      "a",
      "l"
    ],
    [
      "a",
      "c"
    ],
    [
      "a",
      "s"
    ],
    [
      "a",
      "i"
    ],
    [
      "a",
      "g"
    ],
    [
      "a",
      "m"
    ],
    [
      "a",
      "b"
    ],
    [
      "a",
      "d"
    ],
    [
      "a",
      "ll"
    ],
    [
      "Ġinform",
      "a"
    ],
    [
      "a",
      "t"
    ],
    [
      "a",
      "l"
    ],
    [
      "a",
      "c"
    ],
    [
      "it",
      "e"
    ],
    [
      "e",
      "l"
    ],
    [
      "on",
      "e"
    ],
    [
      "ov",
      "e"
    ],
    [
      "e",
      "l"
    ],
    [
      "tion",
      "s"
    ],
    [
      "s",
      "."
    ],
    [
      "s",
      ","
    ],
    [
      "es",
      ","
    ],
    [
      "Ġus",
      "ed"
    ],
    [
      "Ġ20",
      "0"
    ],
    [
      "w",
      "a"
    ],
    [
      "a",
      "n"
    ],
    [
      "a",
      "t"
    ],
    [
      "a",
      "r"
    ],
    [
      "a",
      "l"
    ],
    [
      "a",
      "s"
    ],
    [
      "a",
      "i"
    ],
    [
      "a",
      "ll"
    ],
    [
      "em",
      "ent"
    ],
    [
      "on",
      "g"
    ],
    [
      "g",
      "e"
    ],
    [
      "g",
      "h"
    ],
    [
      "p",
      "t"
    ],
    [
      "'",
      "s"
    ],
    [
      "s",
      "t"
    ],
    [
      "s",
      "."
    ],
    [
      "s",
      ","
    ],
    [
      "s",
      "u"
    ],
    [
      "at",
      "ion"
    ],
    [
      "r",
      "s"
    ],
    [
      "a",
      "r"
    ],
    [
      "u",
      "r"
    ],
    [
      "s",
      "e"
    ],
    [
      "s",
      ","
    ],
    [
      "s",
      "s"
    ],
    [
      "ou",
      "r"
    ],
    [
      "a",
      "v"
    ],
    [
      "Ġof",
      "f"
    ],
    [
      "ec",
      "t"
    ],
    [
      "in",
      "t"
    ],
    [
      "t",
      "a"
    ],
    [
      "t",
      "e"
    ],
    [
      "t",
      "h"
    ],
    [
      "t",
      "er"
    ],
    [
      "t",
      "ed"
    ],
    [
      "t",
      "s"
    ],
    [
      "t",
      "u"
    ],
    [
      "t",
      "y"
    ],
    [
      "t",
      "ing"
    ],
    [
      "et",
      "u"
    ],
    [
      "u",
      "r"
    ],
    [
      "u",
      "s"
    ],
    [
      "u",
      "t"
    ],
    [
      "u",
      "n"
    ],
    [
      "u",
      "a"
    ],
    [
      "Ġa",
      "v"
    ],
    [
      "r",
      "u"
    ],
    [
      "a",
      "r"
    ],
    [
      "u",
      "r"
    ],
    [
      "u",
      "s"
    ],
    [
      "u",
      "t"
    ],
    [
      "u",
      "n"
    ],
    [
      "t",
      "r"
    ],
    [
      "u",
      "l"
    ],
    [
      "u",
      "a"
    ],
    [
      "p",
      "r"
    ],
    [
      "c",
      "r"
    ],
    [
      "r",
      "s"
    ],
    [
      "Ġit",
      "em"
    ],
    [
      "or",
      "y"
    ],
    [
      "d",
      "s"
    ],
    [
      "Ġn",
      "ew"
    ],
    [
      "b",
      "a"
    ],
    [
      "Ġim",
      "p"
    ],
    [
      "p",
      "l"
    ],
    [
      "p",
      "a"
    ],
    [
      "p",
      "r"
    ],
    [
      "Ġn",
      "eed"
    ],
    [
      "ica",
      "l"
    ],
    [
      "l",
      "y"
    ],
    [
      "l",
      "s"
    ],
    [
      "v",
      "e"
    ],
    [
      "is",
      "s"
    ],
    [
      "s",
      "t"
    ],
    [
      "s",
      "."
    ],
    [
      "s",
      "e"
    ],
    [
      "s",
      ","
    ],
    [
      "s",
      "u"
    ],
    [
      "l",
      "es"
    ],
    [
      "a",
      "l"
    ],
    [
      "e",
      "l"
    ],
    [
      "i",
      "l"
    ],
    [
      "o",
      "l"
    ],
    [
      "b",
      "l"
    ],
    [
      "u",
      "l"
    ],
    [
      "p",
      "l"
    ],
    [
      "es",
      "e"
    ],
    [
      "es",
      ","
    ],
    [
      "Ġth",
      "ey"
    ],
    [
      "u",
      "b"
    ],
    [
      "b",
      "l"
    ],
    [
      "t",
      "u"
    ],
    [
      "Ġs",
      "u"
    ],
    [
      "s",
      "u"
    ],
    [
      "r",
      "k"
    ],
    [
      "Ġcons",
      "ent"
    ],
    [
      "n",
      "y"
    ],
    [
      "t",
      "o"
    ],
    [
      "Ġ",
      "en"
    ],
    [
      "Ġin",
      "s"
    ],
    [
      "s",
      "t"
    ],
    [
      "s",
      "e"
    ],
    [
      "s",
      "er"
    ],
    [
      "s",
      "u"
    ],
    [
      "f",
      "f"
    ],
    [
      "m",
      "e"
    ],
    [
      "a",
      "m"
    ],
    [
      "ing",
      ","
    ],
    [
      "t",
      "ing"
    ],
    [
      "d",
      "er"
    ],
    [
      "Ġca",
      "r"
    ],
    [
      "r",
      "a"
    ],
    [
      "r",
      "e"
    ],
    [
      "r",
      "t"
    ],
    [
      "r",
      "o"
    ],
    [
      "r",
      "d"
    ],
    [
      "r",
      "n"
    ],
    [
      "r",
      "c"
    ],
    [
      "r",
      "s"
    ],
    [
      "es",
      "t"
    ],
    [
      "in",
      "k"
    ],
    [
      "et",
      "a"
    ],
    [
      "a",
      "n"
    ],
    [
      "a",
      "t"
    ],
    [
      "a",
      "r"
    ],
    [
      "a",
      "l"
    ],
    [
      "a",
      "c"
    ],
    [
      "a",
      "s"
    ],
    [
      "a",
      "g"
    ],
    [
      "a",
      "m"
    ],
    [
      "a",
      "i"
    ],
    [
      "a",
      "b"
    ],
    [
      "a",
      "d"
    ],
    [
      "a",
      "ll"
    ],
    [
      "a",
      "v"
    ],
    [
      "y",
      "s"
    ],
    [
      "s",
      "t"
    ],
    [
      "l",
      "y"
    ],
    [
      "r",
      "y"
    ],
    [
      "s",
      "."
    ],
    [
      "s",
      "e"
    ],
    [
      "s",
      ","
    ],
    [
      "s",
      "u"
    ],
    [
      "l",
      "o"
    ],
    [
      "a",
      "l"
    ],
    [
      "e",
      "l"
    ],
    [
      "p",
      "l"
    ],
    [
      "Ġp",
      "erson"
    ],
    [
      "Ġs",
      "e"
    ],
    [
      "r",
      "es"
    ],
    [
      "m",
      "e"
    ],
    [
      "essa",
      "r"
    ],
    [
      "r",
      "y"
    ],
    [
      "r",
      "i"
    ],
    [
      "or",
      "e"
    ],
    [
      "is",
      "h"
    ],
    [
      "h",
      "a"
    ],
    [
      "h",
      "er"
    ],
    [
      "h",
      "e"
    ],
    [
      "ĠU",
      "s"
    ],
    [
      "s",
      "."
    ],
    [
      "s",
      ","
    ],
    [
      "s",
      "e"
    ],
    [
      "s",
      "u"
    ],
    [
      "l",
      "o"
    ],
    [
      "era",
      "t"
    ],
    [
      "t",
      "ion"
    ],
    [
      "t",
      "e"
    ],
    [
      "t",
      "ed"
    ],
    [
      "t",
      "u"
    ],
    [
      "t",
      "ing"
    ],
    [
      "er",
      "n"
    ],
    [
      "n",
      "d"
    ],
    [
      "n",
      "c"
    ],
    [
      "t",
      "er"
    ],
    [
      "n",
      "a"
    ],
    [
      "n",
      "s"
    ],
    [
      "h",
      "er"
    ],
    [
      "n",
      "e"
    ],
    [
      "d",
      "er"
    ],
    [
      "Ġonl",
      "y"
    ],
    [
      "c",
      "a"
    ],
    [
      "a",
      "n"
    ],
    [
      "a",
      "r"
    ],
    [
      "a",
      "s"
    ],
    [
      "a",
      "d"
    ],
    [
      "Ġ(",
      "1"
    ],
    [
      "l",
      "p"
    ],
    [
      "a",
      "l"
    ],
    [
      "e",
      "l"
    ],
    [
      "i",
      "l"
    ],
    [
      "o",
      "l"
    ],
    [
      "u",
      "l"
    ],
    [
      "p",
      "l"
    ],
    [
      "Ġa",
      "l"
    ],
    [
      "p",
      "a"
    ],
    [
      "p",
      "r"
    ],
    [
      "p",
      "t"
    ],
    [
      "Ġcont",
      "a"
    ],
    [
      "a",
      "c"
    ],
    [
      "a",
      "g"
    ],
    [
      "a",
      "m"
    ],
    [
      "Ġd",
      "a"
    ],
    [
      "w",
      "a"
    ],
    [
      "c",
      "a"
    ],
    [
      "Ġwh",
      "en"
    ],
    [
      "er",
      "ienc"
    ],
    [
      "ear",
      "c"
    ],
    [
      "c",
      "h"
    ],
    [
      "earc",
      "h"
    ],
    [
      "h",
      "a"
    ],
    [
      "h",
      "er"
    ],
    [
      "Ġpr",
      "o"
    ],
    [
      "o",
      "l"
    ],
    [
      "o",
      "p"
    ],
    [
      "o",
      "t"
    ],
    [
      "a",
      "p"
    ],
    [
      "l",
      "et"
    ],
    [
      "a",
      "l"
    ],
    [
      "e",
      "l"
    ],
    [
      "i",
      "l"
    ],
    [
      "o",
      "l"
    ],
    [
      "b",
      "l"
    ],
    [
      "u",
      "l"
    ],
    [
      "p",
      "l"
    ],
    [
      "Ġ",
      "K"
    ],
    [
      "Ġv",
      "isit"
    ],
    [
      "Ġs",
      "ervic"
    ],
    [
      "Ġin",
      "d"
    ],
    [
      "d",
      "e"
    ],
    [
      "os",
      "s"
    ],
    [
      "s",
      "t"
    ],
    [
      "s",
      "."
    ],
    [
      "s",
      ","
    ],
    [
      "s",
      "e"
    ],
    [
      "s",
      "u"
    ],
    [
      "essar",
      "y"
    ],
    [
      "e",
      "a"
    ],
    [
      "u",
      "c"
    ],
    [
      "Ġpu",
      "r"
    ],
    [
      "r",
      "a"
    ],
    [
      "r",
      "e"
    ],
    [
      "r",
      "o"
    ],
    [
      "r",
      "i"
    ],
    [
      "r",
      "s"
    ],
    [
      "r",
      "es"
    ],
    [
      "it",
      "e"
    ],
    [
      "b",
      "a"
    ],
    [
      "Ġmor",
      "e"
    ],
    [
      "rou",
      "p"
    ],
    [
      "p",
      "a"
    ],
    [
      "Ġr",
      "ep"
    ],
    [
      "o",
      "x"
    ],
    [
      "Ġt",
      "o"
    ],
    [
      "T",
      "o"
    ],
    [
      "Ġ",
      "o"
    ],
    [
      "r",
      "o"
    ],
    [
      "t",
      "o"
    ],
    [
      "l",
      "o"
    ],
    [
      "on",
      "e"
    ],
    [
      "er",
      "."
    ],
    [
      "t",
      "er"
    ],
    [
      "h",
      "er"
    ],
    [
      "d",
      "er"
    ],
    [
      "u",
      "p"
    ],
    [
      "p",
      "l"
    ],
    [
      "t",
      "u"
    ],
    [
      "Ġs",
      "u"
    ],
    [
      "s",
      "u"
    ],
    [
      "p",
      "t"
    ],
    [
      "Ġp",
      "o"
    ],
    [
      "o",
      "l"
    ],
    [
      "o",
      "p"
    ],
    [
      "o",
      "t"
    ],
    [
      "c",
      "y"
    ],
    [
      "a",
      "c"
    ],
    [
      "n",
      "c"
    ],
    [
      "Ġw",
      "e"
    ],
    [
      "P",
      "r"
    ],
    [
      "r",
      "a"
    ],
    [
      "r",
      "e"
    ],
    [
      "r",
      "o"
    ],
    [
      "r",
      "i"
    ],
    [
      "r",
      "es"
    ],
    [
      "it",
      "ed"
    ],
    [
      "Ġr",
      "a"
    ],
    [
      "a",
      "n"
    ],
    [
      "a",
      "t"
    ],
    [
      "a",
      "r"
    ],
    [
      "a",
      "c"
    ],
    [
      "a",
      "s"
    ],
    [
      "a",
      "g"
    ],
    [
      "a",
      "m"
    ],
    [
      "a",
      "i"
    ],
    [
      "a",
      "b"
    ],
    [
      "a",
      "d"
    ],
    [
      "a",
      "ll"
    ],
    [
      "a",
      "v"
    ],
    [
      "a",
      "p"
    ],
    [
      "k",
      "e"
    ],
    [
      "er",
      "ed"
    ],
    [
      "t",
      "er"
    ],
    [
      "h",
      "er"
    ],
    [
      "d",
      "er"
    ],
    [
      "W",
      "e"
    ],
    [
      "ow",
      "s"
    ],
    [
      "s",
      "t"
    ],
    [
      "s",
      "."
    ],
    [
      "s",
      ","
    ],
    [
      "s",
      "e"
    ],
    [
      "ĠI",
      "t"
    ],
    [
      "t",
      "a"
    ],
    [
      "t",
      "h"
    ],
    [
      "t",
      "e"
    ],
    [
      "t",
      "s"
    ],
    [
      "ec",
      "k"
    ],
    [
      "k",
      "e"
    ],
    [
      "Ġpr",
      "o"
    ],
    [
      "l",
      "ic"
    ],
    [
      "e",
      "ir"
    ],
    [
      "Ġth",
      "e"
    ],
    [
      "r",
      "e"
    ],
    [
      "l",
      "e"
    ],
    [
      "t",
      "e"
    ],
    [
      "c",
      "e"
    ],
    [
      "i",
      "e"
    ],
    [
      "er",
      "e"
    ],
    [
      "h",
      "e"
    ],
    [
      "Ġ",
      "e"
    ],
    [
      "d",
      "e"
    ],
    [
      "iv",
      "e"
    ],
    [
      "m",
      "e"
    ],
    [
      "Ġw",
      "e"
    ],
    [
      "in",
      "d"
    ],
    [
      "it",
      "ies"
    ],
    [
      "Ġ",
      "\""
    ],
    [
      "s",
      "h"
    ],
    [
      "a",
      "s"
    ],
    [
      "h",
      "a"
    ],
    [
      "n",
      "s"
    ],
    [
      "r",
      "s"
    ],
    [
      "l",
      "iv"
    ],
    [
      "a",
      "l"
    ],
    [
      "i",
      "l"
    ],
    [
      "e",
      "l"
    ],
    [
      "o",
      "l"
    ],
    [
      "b",
      "l"
    ],
    [
      "Ġa",
      "l"
    ],
    [
      "iv",
      "e"
    ],
    [
      "u",
      "lt"
    ],
    [
      "s",
      "u"
    ],
    [
      "etu",
      "r"
    ],
    [
      "in",
      "ess"
    ],
    [
      "c",
      "om"
    ],
    [
      "a",
      "c"
    ],
    [
      "n",
      "c"
    ],
    [
      "om",
      "e"
    ],
    [
      "u",
      "c"
    ],
    [
      "in",
      "t"
    ],
    [
      "etur",
      "n"
    ],
    [
      "n",
      "a"
    ],
    [
      "n",
      "s"
    ],
    [
      "Ġexp",
      "erienc"
    ],
    [
      "Ġun",
      "d"
    ],
    [
      "d",
      "a"
    ],
    [
      "d",
      "e"
    ],
    [
      "Ġl",
      "ist"
    ],
    [
      "Ġ",
      "oth"
    ],
    [
      "ec",
      "h"
    ],
    [
      "h",
      "a"
    ],
    [
      "h",
      "er"
    ],
    [
      "h",
      "e"
    ],
    [
      "ia",
      "t"
    ],
    [
      "t",
      "a"
    ],
    [
      "t",
      "h"
    ],
    [
      "t",
      "ion"
    ],
    [
      "t",
      "e"
    ],
    [
      "t",
      "r"
    ],
    [
      "t",
      "ed"
    ],
    [
      "t",
      "s"
    ],
    [
      "t",
      "u"
    ],
    [
      "t",
      "ing"
    ],
    [
      "t",
      "t"
    ],
    [
      "t",
      "o"
    ],
    [
      "ĠJ",
      "u"
    ],
    [
      "u",
      "r"
    ],
    [
      "u",
      "s"
    ],
    [
      "u",
      "n"
    ],
    [
      "u",
      "l"
    ],
    [
      "u",
      "a"
    ],
    [
      "Ġs",
      "it"
    ],
    [
      "a",
      "tion"
    ],
    [
      "p",
      "p"
    ],
    [
      "r",
      "g"
    ],
    [
      "a",
      "r"
    ],
    [
      "u",
      "r"
    ],
    [
      "g",
      "e"
    ],
    [
      "ou",
      "r"
    ],
    [
      "g",
      "h"
    ],
    [
      "n",
      "ction"
    ],
    [
      "u",
      "n"
    ],
    [
      "Ġem",
      "a"
    ],
    [
      "a",
      "n"
    ],
    [
      "a",
      "i"
    ],
    [
      "s",
      "h"
    ],
    [
      "Ġus",
      "ers"
    ],
    [
      "h",
      "i"
    ],
    [
      "t",
      "h"
    ],
    [
      "s",
      "h"
    ],
    [
      "Ġpr",
      "od"
    ],
    [
      "o",
      "d"
    ],
    [
      "h",
      "i"
    ],
    [
      "ĠP",
      "l"
    ],
    [
      "l",
      "e"
    ],
    [
      "l",
      "y"
    ],
    [
      "l",
      "a"
    ],
    [
      "l",
      "o"
    ],
    [
      "Ġprov",
      "id"
    ],
    [
      "Ġfor",
      "um"
    ],
    [
      "ik",
      "e"
    ],
    [
      "e",
      "l"
    ],
    [
      "g",
      "a"
    ],
    [
      "a",
      "n"
    ],
    [
      "a",
      "t"
    ],
    [
      "a",
      "r"
    ],
    [
      "a",
      "l"
    ],
    [
      "a",
      "s"
    ],
    [
      "a",
      "g"
    ],
    [
      "a",
      "m"
    ],
    [
      "a",
      "b"
    ],
    [
      "n",
      "g"
    ],
    [
      "a",
      "d"
    ],
    [
      "a",
      "v"
    ],
    [
      "d",
      "ing"
    ],
    [
      "Ġh",
      "ow"
    ],
    [
      "i",
      "lity"
    ],
    [
      "r",
      "i"
    ],
    [
      "m",
      "p"
    ],
    [
      "a",
      "m"
    ],
    [
      "p",
      "l"
    ],
    [
      "p",
      "a"
    ],
    [
      "p",
      "r"
    ],
    [
      "p",
      "t"
    ],
    [
      "r",
      "r"
    ],
    [
      "u",
      "e"
    ],
    [
      "e",
      "l"
    ],
    [
      "s",
      "u"
    ],
    [
      "s",
      "o"
    ],
    [
      "o",
      "l"
    ],
    [
      "l",
      "s"
    ],
    [
      "s",
      "s"
    ],
    [
      "Ġth",
      "at"
    ],
    [
      "Ġp",
      "erm"
    ],
    [
      ".",
      "."
    ],
    [
      "it",
      "a"
    ],
    [
      "a",
      "n"
    ],
    [
      "a",
      "t"
    ],
    [
      "a",
      "r"
    ],
    [
      "a",
      "l"
    ],
    [
      "a",
      "s"
    ],
    [
      "a",
      "g"
    ],
    [
      "a",
      "m"
    ],
    [
      "a",
      "b"
    ],
    [
      "a",
      "v"
    ],
    [
      "a",
      "p"
    ],
    [
      "a",
      "tion"
    ],
    [
      "a",
      "w"
    ],
    [
      "r",
      "a"
    ],
    [
      "l",
      "a"
    ],
    [
      "t",
      "a"
    ],
    [
      "h",
      "a"
    ],
    [
      "u",
      "a"
    ],
    [
      "p",
      "a"
    ],
    [
      "d",
      "a"
    ],
    [
      "Ġd",
      "a"
    ],
    [
      "e",
      "a"
    ],
    [
      "w",
      "a"
    ],
    [
      "l",
      "u"
    ],
    [
      "ook",
      "i"
    ],
    [
      "i",
      "e"
    ],
    [
      "Ġsp",
      "ec"
    ],
    [
      "ec",
      "t"
    ],
    [
      "oun",
      "d"
    ],
    [
      "d",
      "a"
    ],
    [
      "d",
      "s"
    ],
    [
      "d",
      "ing"
    ],
    [
      "Ġav",
      "a"
    ],
    [
      "a",
      "n"
    ],
    [
      "a",
      "t"
    ],
    [
      "a",
      "r"
    ],
    [
      "a",
      "l"
    ],
    [
      "a",
      "i"
    ],
    [
      "y",
      "."
    ],
    [
      "s",
      "o"
    ],
    [
      "I",
      "n"
    ],
    [
      "n",
      "d"
    ],
    [
      "n",
      "t"
    ],
    [
      "n",
      "c"
    ],
    [
      "n",
      "g"
    ],
    [
      "n",
      "s"
    ],
    [
      "l",
      "ed"
    ],
    [
      "a",
      "l"
    ],
    [
      "i",
      "l"
    ],
    [
      "e",
      "l"
    ],
    [
      "b",
      "l"
    ],
    [
      "u",
      "l"
    ],
    [
      "p",
      "l"
    ],
    [
      "l",
      "es"
    ],
    [
      "es",
      "."
    ],
    [
      "Ġm",
      "on"
    ],
    [
      "on",
      "s"
    ],
    [
      "on",
      "e"
    ],
    [
      "y",
      "s"
    ],
    [
      "Ġv",
      "a"
    ],
    [
      "a",
      "n"
    ],
    [
      "a",
      "r"
    ],
    [
      "a",
      "l"
    ],
    [
      "a",
      "c"
    ],
    [
      "a",
      "s"
    ],
    [
      "a",
      "m"
    ],
    [
      "a",
      "g"
    ],
    [
      "a",
      "d"
    ],
    [
      "a",
      "ll"
    ],
    [
      "a",
      "p"
    ],
    [
      "y",
      ","
    ],
    [
      "Ġas",
      "s"
    ],
    [
      "s",
      "."
    ],
    [
      "s",
      ","
    ],
    [
      "s",
      "e"
    ],
    [
      "s",
      "u"
    ],
    [
      "s",
      "o"
    ],
    [
      "Ġa",
      "b"
    ],
    [
      "c",
      "y"
    ],
    [
      "i",
      "pp"
    ],
    [
      "r",
      "i"
    ],
    [
      "ion",
      "a"
    ],
    [
      "a",
      "t"
    ],
    [
      "a",
      "r"
    ],
    [
      "a",
      "l"
    ],
    [
      "t",
      "ion"
    ],
    [
      "a",
      "g"
    ],
    [
      "a",
      "b"
    ],
    [
      "a",
      "d"
    ],
    [
      "a",
      "ll"
    ],
    [
      "r",
      "ed"
    ],
    [
      "a",
      "r"
    ],
    [
      "u",
      "r"
    ],
    [
      "ou",
      "r"
    ],
    [
      "c",
      "r"
    ],
    [
      "p",
      "r"
    ],
    [
      "r",
      "r"
    ],
    [
      "B",
      "B"
    ],
    [
      "Ġd",
      "es"
    ],
    [
      "es",
      "e"
    ],
    [
      "es",
      "t"
    ],
    [
      "n",
      "n"
    ],
    [
      "a",
      "n"
    ],
    [
      "u",
      "n"
    ],
    [
      "n",
      "a"
    ],
    [
      "n",
      "s"
    ],
    [
      "n",
      "e"
    ],
    [
      "n",
      "y"
    ],
    [
      "Ġema",
      "i"
    ],
    [
      "i",
      "l"
    ],
    [
      "e",
      "liv"
    ],
    [
      "d",
      "e"
    ],
    [
      "Ġd",
      "e"
    ],
    [
      "Ġcom",
      "m"
    ],
    [
      "m",
      "a"
    ],
    [
      "m",
      "ent"
    ],
    [
      "m",
      "e"
    ],
    [
      "ĠS",
      "ervic"
    ],
    [
      "Ġex",
      "c"
    ],
    [
      "c",
      "h"
    ],
    [
      "c",
      "e"
    ],
    [
      "c",
      "r"
    ],
    [
      "c",
      "a"
    ],
    [
      "ĠCon",
      "t"
    ],
    [
      "t",
      "a"
    ],
    [
      "t",
      "r"
    ],
    [
      "r",
      "c"
    ],
    [
      "Ġh",
      "igh"
    ],
    [
      "m",
      "p"
    ],
    [
      "k",
      "et"
    ],
    [
      "c",
      "k"
    ],
    [
      "Ġon",
      "e"
    ],
    [
      "l",
      ","
    ],
    [
      "a",
      "l"
    ],
    [
      "e",
      "l"
    ],
    [
      "i",
      "l"
    ],
    [
      "o",
      "l"
    ],
    [
      "u",
      "l"
    ],
    [
      "Ġa",
      "l"
    ],
    [
      "Ġf",
      "e"
    ],
    [
      "e",
      "l"
    ],
    [
      "e",
      "e"
    ],
    [
      "e",
      "a"
    ],
    [
      "o",
      "in"
    ],
    [
      "in",
      "e"
    ],
    [
      "t",
      "o"
    ],
    [
      "in",
      "t"
    ],
    [
      "ook",
      "i"
    ],
    [
      "Ġwebsit",
      "e."
    ],
    [
      "it",
      "t"
    ],
    [
      "t",
      "a"
    ],
    [
      "t",
      "e"
    ],
    [
      "t",
      "er"
    ],
    [
      "t",
      "s"
    ],
    [
      "t",
      "ed"
    ],
    [
      "t",
      "y"
    ],
    [
      "t",
      "ing"
    ],
    [
      "t",
      "o"
    ],
    [
      "ag",
      "e"
    ],
    [
      "Ġs",
      "om"
    ],
    [
      "Ġperson",
      "a"
    ],
    [
      "a",
      "l"
    ],
    [
      "a",
      "s"
    ],
    [
      "a",
      "b"
    ],
    [
      "a",
      "ll"
    ],
    [
      "us",
      "t"
    ],
    [
      "t",
      "a"
    ],
    [
      "t",
      "e"
    ],
    [
      "t",
      "ed"
    ],
    [
      "t",
      "r"
    ],
    [
      "t",
      "u"
    ],
    [
      "t",
      "ing"
    ],
    [
      "t",
      "o"
    ],
    [
      "ic",
      "e"
    ],
    [
      "erm",
      "s"
    ],
    [
      "s",
      "."
    ],
    [
      "s",
      ","
    ],
    [
      "Ġg",
      "o"
    ],
    [
      "o",
      "l"
    ],
    [
      "o",
      "t"
    ],
    [
      "ec",
      "essary"
    ],
    [
      "Ġpr",
      "oc"
    ],
    [
      "ia",
      "n"
    ],
    [
      "n",
      "d"
    ],
    [
      "n",
      "t"
    ],
    [
      "n",
      "c"
    ],
    [
      "n",
      "g"
    ],
    [
      "n",
      "a"
    ],
    [
      "n",
      "s"
    ],
    [
      "n",
      "e"
    ],
    [
      "uc",
      "h"
    ],
    [
      "h",
      "a"
    ],
    [
      "h",
      "e"
    ],
    [
      "ic",
      "y"
    ],
    [
      "y",
      ","
    ],
    [
      "y",
      "."
    ],
    [
      "Ġn",
      "a"
    ],
    [
      "a",
      "n"
    ],
    [
      "a",
      "t"
    ],
    [
      "a",
      "r"
    ],
    [
      "a",
      "l"
    ],
    [
      "a",
      "c"
    ],
    [
      "a",
      "s"
    ],
    [
      "a",
      "g"
    ],
    [
      "a",
      "m"
    ],
    [
      "a",
      "b"
    ],
    [
      "a",
      "d"
    ],
    [
      "a",
      "i"
    ],
    [
      "a",
      "p"
    ],
    [
      "a",
      "v"
    ],
    [
      "a",
      "tion"
    ],
    [
      "ion",
      "."
    ],
    [
      "t",
      "ion"
    ],
    [
      ".",
      "."
    ],
    [
      "Ġth",
      "eir"
    ],
    [
      "ar",
      "y"
    ],
    [
      "y",
      ","
    ],
    [
      "y",
      "."
    ],
    [
      "ef",
      "er"
    ],
    [
      "er",
      "e"
    ],
    [
      "h",
      "o"
    ],
    [
      "c",
      "h"
    ],
    [
      "t",
      "h"
    ],
    [
      "o",
      "l"
    ],
    [
      "o",
      "p"
    ],
    [
      "o",
      "t"
    ],
    [
      "ir",
      "s"
    ],
    [
      "s",
      "t"
    ],
    [
      "s",
      "."
    ],
    [
      "s",
      ","
    ],
    [
      "s",
      "h"
    ],
    [
      "s",
      "tom"
    ],
    [
      "u",
      "s"
    ],
    [
      "Ġth",
      "es"
    ],
    [
      "Ġoth",
      "er"
    ],
    [
      "u",
      "b"
    ],
    [
      "h",
      "o"
    ],
    [
      "ĠC",
      "h"
    ],
    [
      "h",
      "a"
    ],
    [
      "h",
      "er"
    ],
    [
      "h",
      "e"
    ],
    [
      "Ġemai",
      "l"
    ],
    [
      "l",
      "s"
    ],
    [
      "p",
      "on"
    ],
    [
      "a",
      "p"
    ],
    [
      "on",
      "s"
    ],
    [
      "on",
      "e"
    ],
    [
      "m",
      "p"
    ],
    [
      "H",
      "ow"
    ],
    [
      "ea",
      "c"
    ],
    [
      "c",
      "h"
    ],
    [
      "c",
      "t"
    ],
    [
      "c",
      "e"
    ],
    [
      "c",
      "r"
    ],
    [
      "em",
      "b"
    ],
    [
      "b",
      "l"
    ],
    [
      "b",
      "a"
    ],
    [
      "f",
      "t"
    ],
    [
      "t",
      "h"
    ],
    [
      "t",
      "e"
    ],
    [
      "t",
      "er"
    ],
    [
      "t",
      "s"
    ],
    [
      "t",
      "ed"
    ],
    [
      "t",
      "r"
    ],
    [
      "t",
      "u"
    ],
    [
      "t",
      "y"
    ],
    [
      "t",
      "ing"
    ],
    [
      "t",
      "o"
    ],
    [
      "Ġinforma",
      "t"
    ],
    [
      "t",
      "ion"
    ],
    [
      "t",
      "ic"
    ],
    [
      "Ġm",
      "od"
    ],
    [
      "Ġcha",
      "n"
    ],
    [
      "n",
      "d"
    ],
    [
      "n",
      "c"
    ],
    [
      "n",
      "g"
    ],
    [
      "n",
      "e"
    ],
    [
      "o",
      "w"
    ],
    [
      "i",
      "ed"
    ],
    [
      "r",
      "i"
    ],
    [
      "or",
      "m"
    ],
    [
      "ea",
      "u"
    ],
    [
      "u",
      "s"
    ],
    [
      "u",
      "t"
    ],
    [
      "u",
      "a"
    ],
    [
      "u",
      "c"
    ],
    [
      "E",
      "R"
    ],
    [
      "e",
      "b"
    ],
    [
      "u",
      "e"
    ],
    [
      "et",
      "t"
    ],
    [
      "t",
      "a"
    ],
    [
      "t",
      "e"
    ],
    [
      "t",
      "er"
    ],
    [
      "t",
      "s"
    ],
    [
      "t",
      "ed"
    ],
    [
      "t",
      "u"
    ],
    [
      "t",
      "y"
    ],
    [
      "t",
      "ing"
    ],
    [
      "t",
      "o"
    ],
    [
      "ou",
      "g"
    ],
    [
      "g",
      "e"
    ],
    [
      "iz",
      "e"
    ],
    [
      "e",
      "a"
    ],
    [
      "ĠS",
      "h"
    ],
    [
      "h",
      "a"
    ],
    [
      "h",
      "er"
    ],
    [
      "h",
      "e"
    ],
    [
      "or",
      "t"
    ],
    [
      "u",
      "p"
    ],
    [
      "Ġord",
      "er"
    ],
    [
      "at",
      "e"
    ],
    [
      "e",
      "l"
    ],
    [
      "ĠF",
      "or"
    ],
    [
      "or",
      "e"
    ],
    [
      "Ġa",
      "u"
    ],
    [
      "u",
      "r"
    ],
    [
      "u",
      "s"
    ],
    [
      "u",
      "t"
    ],
    [
      "u",
      "n"
    ],
    [
      "u",
      "c"
    ],
    [
      "u",
      "p"
    ],
    [
      "Ġrec",
      "e"
    ],
    [
      "a",
      "k"
    ],
    [
      "om",
      "m"
    ],
    [
      "m",
      "a"
    ],
    [
      "m",
      "ent"
    ],
    [
      "m",
      "e"
    ],
    [
      "e",
      "h"
    ],
    [
      "l",
      "e"
    ],
    [
      "r",
      "e"
    ],
    [
      "Ġb",
      "e"
    ],
    [
      "c",
      "e"
    ],
    [
      "t",
      "e"
    ],
    [
      "h",
      "a"
    ],
    [
      "e",
      "e"
    ],
    [
      "i",
      "e"
    ],
    [
      "er",
      "e"
    ],
    [
      "s",
      "e"
    ],
    [
      "h",
      "er"
    ],
    [
      "h",
      "e"
    ],
    [
      "n",
      "e"
    ],
    [
      "Ġr",
      "e"
    ],
    [
      "d",
      "e"
    ],
    [
      "v",
      "e"
    ],
    [
      "Ġs",
      "e"
    ],
    [
      "m",
      "e"
    ],
    [
      "or",
      "e"
    ],
    [
      "on",
      "e"
    ],
    [
      "k",
      "e"
    ],
    [
      "Ġd",
      "e"
    ],
    [
      "ic",
      "e"
    ],
    [
      "or",
      "t"
    ],
    [
      "p",
      "h"
    ],
    [
      "o",
      "p"
    ],
    [
      "h",
      "a"
    ],
    [
      "h",
      "er"
    ],
    [
      "h",
      "e"
    ],
    [
      "a",
      "p"
    ],
    [
      "m",
      "p"
    ],
    [
      "u",
      "p"
    ],
    [
      "or",
      "k"
    ],
    [
      "c",
      "c"
    ],
    [
      "a",
      "c"
    ],
    [
      "c",
      "e"
    ],
    [
      "c",
      "r"
    ],
    [
      "c",
      "a"
    ],
    [
      "u",
      "c"
    ],
    [
      "t",
      "es"
    ],
    [
      "Ġc",
      "oll"
    ],
    [
      "Ġpl",
      "a"
    ],
    [
      "a",
      "n"
    ],
    [
      "a",
      "t"
    ],
    [
      "a",
      "c"
    ],
    [
      "a",
      "s"
    ],
    [
      "a",
      "g"
    ],
    [
      "u",
      "g"
    ],
    [
      "eau",
      "t"
    ],
    [
      "t",
      "h"
    ],
    [
      "t",
      "e"
    ],
    [
      "t",
      "o"
    ],
    [
      "t",
      "y"
    ],
    [
      "f",
      "or"
    ],
    [
      "ĠJ",
      "a"
    ],
    [
      "a",
      "n"
    ],
    [
      "a",
      "t"
    ],
    [
      "a",
      "r"
    ],
    [
      "a",
      "l"
    ],
    [
      "a",
      "c"
    ],
    [
      "a",
      "s"
    ],
    [
      "a",
      "g"
    ],
    [
      "a",
      "m"
    ],
    [
      "a",
      "b"
    ],
    [
      "a",
      "d"
    ],
    [
      "a",
      "i"
    ],
    [
      "a",
      "p"
    ],
    [
      "a",
      "v"
    ],
    [
      "a",
      "k"
    ],
    [
      "Ġd",
      "u"
    ],
    [
      "u",
      "r"
    ],
    [
      "u",
      "s"
    ],
    [
      "u",
      "t"
    ],
    [
      "u",
      "n"
    ],
    [
      "u",
      "l"
    ],
    [
      "u",
      "a"
    ],
    [
      "u",
      "c"
    ],
    [
      "u",
      "b"
    ],
    [
      "u",
      "p"
    ],
    [
      "u",
      "g"
    ],
    [
      "oa",
      "d"
    ],
    [
      "d",
      "a"
    ],
    [
      "d",
      "s"
    ],
    [
      "d",
      "ing"
    ],
    [
      "ĠT",
      "o"
    ],
    [
      "o",
      "l"
    ],
    [
      "o",
      "p"
    ],
    [
      "o",
      "t"
    ],
    [
      "o",
      "d"
    ],
    [
      "o",
      "w"
    ],
    [
      "ea",
      "m"
    ],
    [
      "Ġfor",
      "m"
    ],
    [
      "m",
      "a"
    ],
    [
      "ed",
      "it"
    ],
    [
      "o",
      "b"
    ],
    [
      "g",
      "es"
    ],
    [
      "on",
      "t"
    ],
    [
      "t",
      "em"
    ],
    [
      "a",
      "t"
    ],
    [
      "s",
      "t"
    ],
    [
      "t",
      "t"
    ],
    [
      "on",
      "t"
    ],
    [
      "n",
      "ing"
    ],
    [
      "a",
      "n"
    ],
    [
      "u",
      "n"
    ],
    [
      "ĠA",
      "n"
    ],
    [
      "n",
      "d"
    ],
    [
      "n",
      "t"
    ],
    [
      "n",
      "c"
    ],
    [
      "n",
      "a"
    ],
    [
      "n",
      "s"
    ],
    [
      "n",
      "g"
    ],
    [
      "n",
      "e"
    ],
    [
      "n",
      "y"
    ],
    [
      "ica",
      "t"
    ],
    [
      "t",
      "e"
    ],
    [
      "t",
      "ion"
    ],
    [
      "t",
      "s"
    ],
    [
      "t",
      "ed"
    ],
    [
      "t",
      "u"
    ],
    [
      "t",
      "ing"
    ],
    [
      "t",
      "o"
    ],
    [
      "t",
      "es"
    ],
    [
      "ed",
      ","
    ],
    [
      "t",
      "ed"
    ],
    [
      "Ġcook",
      "i"
    ],
    [
      "i",
      "e"
    ],
    [
      "Ġp",
      "o"
    ],
    [
      "I",
      "n"
    ],
    [
      "Ġpa",
      "r"
    ],
    [
      "r",
      "a"
    ],
    [
      "r",
      "t"
    ],
    [
      "r",
      "d"
    ],
    [
      "r",
      "s"
    ],
    [
      "r",
      "c"
    ],
    [
      "Ġsh",
      "a"
    ],
    [
      "a",
      "n"
    ],
    [
      "a",
      "t"
    ],
    [
      "a",
      "r"
    ],
    [
      "a",
      "l"
    ],
    [
      "a",
      "c"
    ],
    [
      "a",
      "g"
    ],
    [
      "a",
      "m"
    ],
    [
      "a",
      "d"
    ],
    [
      "a",
      "ll"
    ],
    [
      "a",
      "p"
    ],
    [
      "a",
      "v"
    ],
    [
      "a",
      "k"
    ],
    [
      "iva",
      "c"
    ],
    [
      "l",
      "in"
    ],
    [
      "e",
      "l"
    ],
    [
      "o",
      "l"
    ],
    [
      "p",
      "l"
    ],
    [
      "in",
      "e"
    ],
    [
      "in",
      "d"
    ],
    [
      "a",
      "u"
    ],
    [
      "u",
      "r"
    ],
    [
      "r",
      "a"
    ],
    [
      "l",
      "a"
    ],
    [
      "t",
      "a"
    ],
    [
      "u",
      "s"
    ],
    [
      "h",
      "a"
    ],
    [
      "m",
      "a"
    ],
    [
      "u",
      "t"
    ],
    [
      "u",
      "n"
    ],
    [
      "n",
      "a"
    ],
    [
      "u",
      "l"
    ],
    [
      "d",
      "a"
    ],
    [
      "Ġd",
      "a"
    ],
    [
      "c",
      "a"
    ],
    [
      "u",
      "c"
    ],
    [
      "e",
      "a"
    ],
    [
      "w",
      "a"
    ],
    [
      "u",
      "g"
    ],
    [
      "Ġr",
      "eturn"
    ],
    [
      "v",
      "a"
    ],
    [
      "Ġrequ",
      "ir"
    ],
    [
      "or",
      "m"
    ],
    [
      "Ġit",
      "s"
    ],
    [
      "s",
      "."
    ],
    [
      "s",
      "e"
    ],
    [
      "Ġc",
      "o"
    ],
    [
      "P",
      "r"
    ],
    [
      "ls",
      "o"
    ],
    [
      "oc",
      "k"
    ],
    [
      "n",
      "u"
    ],
    [
      "a",
      "n"
    ],
    [
      "u",
      "t"
    ],
    [
      "u",
      "a"
    ],
    [
      "u",
      "c"
    ],
    [
      "u",
      "b"
    ],
    [
      "u",
      "p"
    ],
    [
      "I",
      "n"
    ],
    [
      "Ġpersona",
      "l"
    ],
    [
      "l",
      "s"
    ],
    [
      "l",
      "es"
    ],
    [
      "ivac",
      "y"
    ],
    [
      "y",
      ","
    ],
    [
      "y",
      "."
    ],
    [
      "Ġl",
      "in"
    ],
    [
      "in",
      "e"
    ],
    [
      "in",
      "t"
    ],
    [
      "ib",
      "l"
    ],
    [
      "l",
      "e"
    ],
    [
      "l",
      "y"
    ],
    [
      "l",
      "es"
    ],
    [
      "M",
      "a"
    ],
    [
      "a",
      "n"
    ],
    [
      "a",
      "t"
    ],
    [
      "a",
      "r"
    ],
    [
      "a",
      "l"
    ],
    [
      "a",
      "c"
    ],
    [
      "a",
      "s"
    ],
    [
      "a",
      "g"
    ],
    [
      "a",
      "m"
    ],
    [
      "a",
      "d"
    ],
    [
      "a",
      "i"
    ],
    [
      "a",
      "p"
    ],
    [
      "a",
      "k"
    ],
    [
      "or",
      "d"
    ],
    [
      "Ġs",
      "c"
    ],
    [
      "c",
      "h"
    ],
    [
      "c",
      "r"
    ],
    [
      "c",
      "a"
    ],
    [
      "Ġcooki",
      "e"
    ],
    [
      "g",
      "in"
    ],
    [
      "a",
      "g"
    ],
    [
      "n",
      "g"
    ],
    [
      "in",
      "e"
    ],
    [
      "Ġl",
      "ike"
    ],
    [
      "g",
      "a"
    ],
    [
      "l",
      "f"
    ],
    [
      "a",
      "l"
    ],
    [
      "e",
      "l"
    ],
    [
      "i",
      "l"
    ],
    [
      "o",
      "l"
    ],
    [
      "u",
      "l"
    ],
    [
      "f",
      "f"
    ],
    [
      "f",
      "or"
    ],
    [
      "ev",
      "e"
    ],
    [
      "e",
      "l"
    ],
    [
      "e",
      "a"
    ],
    [
      "Ġinformat",
      "ion"
    ],
    [
      "e",
      "m"
    ],
    [
      "Ġba",
      "s"
    ],
    [
      "s",
      "t"
    ],
    [
      "s",
      "e"
    ],
    [
      "s",
      "s"
    ],
    [
      "s",
      "h"
    ],
    [
      "Ġp",
      "ro"
    ],
    [
      "h",
      "is"
    ],
    [
      "c",
      "h"
    ],
    [
      "t",
      "h"
    ],
    [
      "T",
      "h"
    ],
    [
      "W",
      "h"
    ],
    [
      "ech",
      "n"
    ],
    [
      "n",
      "a"
    ],
    [
      "s",
      "iness"
    ],
    [
      "u",
      "s"
    ],
    [
      "e",
      "-"
    ],
    [
      "r",
      "e"
    ],
    [
      "l",
      "e"
    ],
    [
      "Ġb",
      "e"
    ],
    [
      "c",
      "e"
    ],
    [
      "t",
      "e"
    ],
    [
      "g",
      "e"
    ],
    [
      "e",
      "e"
    ],
    [
      "er",
      "e"
    ],
    [
      "s",
      "e"
    ],
    [
      "i",
      "e"
    ],
    [
      "h",
      "e"
    ],
    [
      "in",
      "e"
    ],
    [
      "n",
      "e"
    ],
    [
      "d",
      "e"
    ],
    [
      "Ġr",
      "e"
    ],
    [
      "iv",
      "e"
    ],
    [
      "Ġ",
      "e"
    ],
    [
      "v",
      "e"
    ],
    [
      "Ġs",
      "e"
    ],
    [
      "m",
      "e"
    ],
    [
      "or",
      "e"
    ],
    [
      "on",
      "e"
    ],
    [
      "k",
      "e"
    ],
    [
      "Ġd",
      "e"
    ],
    [
      "ic",
      "e"
    ],
    [
      "nction",
      "a"
    ],
    [
      "a",
      "l"
    ],
    [
      "Ġf",
      "i"
    ],
    [
      "i",
      "l"
    ],
    [
      "i",
      "e"
    ],
    [
      "ec",
      "u"
    ],
    [
      "u",
      "r"
    ],
    [
      "u",
      "t"
    ],
    [
      "u",
      "l"
    ],
    [
      "l",
      "."
    ],
    [
      "a",
      "l"
    ],
    [
      "i",
      "l"
    ],
    [
      "e",
      "l"
    ],
    [
      "o",
      "l"
    ],
    [
      "u",
      "l"
    ],
    [
      ".",
      "."
    ],
    [
      "Ġthes",
      "e"
    ],
    [
      "Ġwith",
      "in"
    ],
    [
      "Ġa",
      "f"
    ],
    [
      "f",
      "f"
    ],
    [
      "f",
      "or"
    ],
    [
      "Ġa",
      "lso"
    ],
    [
      "Ġd",
      "is"
    ],
    [
      "irs",
      "t"
    ],
    [
      "t",
      "a"
    ],
    [
      "t",
      "h"
    ],
    [
      "t",
      "r"
    ],
    [
      "t",
      "ing"
    ],
    [
      "t",
      "y"
    ],
    [
      "y",
      "p"
    ],
    [
      "l",
      "y"
    ],
    [
      "r",
      "y"
    ],
    [
      "p",
      "a"
    ],
    [
      "p",
      "r"
    ],
    [
      "p",
      "t"
    ],
    [
      "t",
      "y"
    ],
    [
      "Ġ",
      "own"
    ],
    [
      "u",
      "g"
    ],
    [
      "Ġm",
      "e"
    ],
    [
      "e",
      "l"
    ],
    [
      "e",
      "e"
    ],
    [
      "e",
      "a"
    ],
    [
      "e",
      "m"
    ],
    [
      "r",
      "u"
    ],
    [
      "ea",
      "n"
    ],
    [
      "n",
      "d"
    ],
    [
      "n",
      "t"
    ],
    [
      "n",
      "a"
    ],
    [
      "n",
      "g"
    ],
    [
      "n",
      "s"
    ],
    [
      "ĠP",
      "o"
    ],
    [
      "o",
      "l"
    ],
    [
      "o",
      "p"
    ],
    [
      "o",
      "t"
    ],
    [
      "o",
      "d"
    ],
    [
      "o",
      "w"
    ],
    [
      "Ġadd",
      "ress"
    ],
    [
      "nctiona",
      "l"
    ],
    [
      "ipp",
      "ing"
    ],
    [
      "Ġph",
      "p"
    ],
    [
      "Ġc",
      "ook"
    ],
    [
      "Ġg",
      "en"
    ],
    [
      "lu",
      "d"
    ],
    [
      "d",
      "e"
    ],
    [
      "Ġ",
      "$"
    ],
    [
      "om",
      "e"
    ],
    [
      "id",
      "ent"
    ],
    [
      "Ġr",
      "ight"
    ],
    [
      "Ġp",
      "ay"
    ],
    [
      "Ġava",
      "i"
    ],
    [
      "i",
      "l"
    ],
    [
      "A",
      "d"
    ],
    [
      "d",
      "a"
    ],
    [
      "d",
      "e"
    ],
    [
      "d",
      "s"
    ],
    [
      "Ġ",
      "5"
    ],
    [
      "Ġbu",
      "t"
    ],
    [
      "t",
      "a"
    ],
    [
      "t",
      "t"
    ],
    [
      "o",
      "ld"
    ],
    [
      "Ġt",
      "o"
    ],
    [
      "r",
      "o"
    ],
    [
      "Ġ",
      "o"
    ],
    [
      "Ġs",
      "o"
    ],
    [
      "t",
      "o"
    ],
    [
      "s",
      "o"
    ],
    [
      "Ġc",
      "o"
    ],
    [
      "ĠF",
      "r"
    ],
    [
      "r",
      "a"
    ],
    [
      "r",
      "e"
    ],
    [
      "r",
      "y"
    ],
    [
      "r",
      "o"
    ],
    [
      "r",
      "i"
    ],
    [
      "r",
      "es"
    ],
    [
      "r",
      "u"
    ],
    [
      "Ġsh",
      "ould"
    ],
    [
      "p",
      "h"
    ],
    [
      "Ġr",
      "em"
    ],
    [
      "oc",
      "a"
    ],
    [
      "a",
      "n"
    ],
    [
      "a",
      "t"
    ],
    [
      "a",
      "r"
    ],
    [
      "a",
      "l"
    ],
    [
      "a",
      "c"
    ],
    [
      "a",
      "s"
    ],
    [
      "a",
      "m"
    ],
    [
      "a",
      "b"
    ],
    [
      "a",
      "d"
    ],
    [
      "a",
      "i"
    ],
    [
      "a",
      "ll"
    ],
    [
      "a",
      "tion"
    ],
    [
      "H",
      "ow"
    ],
    [
      "in",
      "u"
    ],
    [
      "u",
      "s"
    ],
    [
      "u",
      "t"
    ],
    [
      "u",
      "a"
    ],
    [
      "eac",
      "h"
    ],
    [
      "h",
      "a"
    ],
    [
      "h",
      "er"
    ],
    [
      "S",
      "h"
    ],
    [
      "h",
      "a"
    ],
    [
      "h",
      "er"
    ],
    [
      "h",
      "e"
    ],
    [
      "ir",
      "d"
    ],
    [
      "d",
      "a"
    ],
    [
      "d",
      "s"
    ],
    [
      "ĠM",
      "ay"
    ],
    [
      "ea",
      "l"
    ],
    [
      "l",
      "a"
    ],
    [
      "l",
      "s"
    ],
    [
      "Ġcont",
      "a"
    ],
    [
      "l",
      "in"
    ],
    [
      "Ġavai",
      "l"
    ],
    [
      "l",
      "a"
    ],
    [
      "l",
      "s"
    ],
    [
      "e",
      "c"
    ],
    [
      "E",
      "S"
    ],
    [
      "Ġl",
      "og"
    ],
    [
      "Ġag",
      "r"
    ],
    [
      "r",
      "a"
    ],
    [
      "r",
      "e"
    ],
    [
      "r",
      "es"
    ],
    [
      "Ġ",
      "4"
    ],
    [
      "is",
      "s"
    ],
    [
      "Ġwor",
      "k"
    ],
    [
      "k",
      "e"
    ],
    [
      "ĠTh",
      "e"
    ],
    [
      "is",
      "e"
    ],
    [
      "e",
      "l"
    ],
    [
      "e",
      "e"
    ],
    [
      "e",
      "m"
    ],
    [
      "u",
      "bs"
    ],
    [
      "t",
      "u"
    ],
    [
      "Ġs",
      "u"
    ],
    [
      "s",
      "u"
    ],
    [
      "l",
      "u"
    ],
    [
      "r",
      "u"
    ],
    [
      "Ġh",
      "er"
    ],
    [
      "er",
      "e"
    ],
    [
      "Ġtop",
      "ic"
    ],
    [
      "s",
      "w"
    ],
    [
      "u",
      "s"
    ],
    [
      "t",
      "s"
    ],
    [
      "s",
      "s"
    ],
    [
      "n",
      "s"
    ],
    [
      "d",
      "s"
    ],
    [
      "w",
      "a"
    ],
    [
      "Ġ",
      "ent"
    ],
    [
      "Ġchan",
      "g"
    ],
    [
      "g",
      "e"
    ],
    [
      "g",
      "es"
    ],
    [
      "g",
      "r"
    ],
    [
      "r",
      "a"
    ],
    [
      "r",
      "e"
    ],
    [
      "a",
      "g"
    ],
    [
      "r",
      "o"
    ],
    [
      "n",
      "g"
    ],
    [
      "r",
      "i"
    ],
    [
      "r",
      "s"
    ],
    [
      "u",
      "g"
    ],
    [
      "-",
      "0"
    ],
    [
      "Ġproc",
      "ess"
    ],
    [
      "h",
      "s"
    ],
    [
      "s",
      "t"
    ],
    [
      "c",
      "h"
    ],
    [
      "t",
      "h"
    ],
    [
      "s",
      "."
    ],
    [
      "s",
      ","
    ],
    [
      "s",
      "s"
    ],
    [
      "s",
      "u"
    ],
    [
      "s",
      "h"
    ],
    [
      "p",
      "h"
    ],
    [
      "I",
      "f"
    ],
    [
      "Ġst",
      "r"
    ],
    [
      "r",
      "a"
    ],
    [
      "r",
      "e"
    ],
    [
      "r",
      "o"
    ],
    [
      "r",
      "i"
    ],
    [
      "r",
      "u"
    ],
    [
      "Ġd",
      "eliv"
    ],
    [
      "eta",
      "i"
    ],
    [
      "i",
      "l"
    ],
    [
      "Ġp",
      "erf"
    ],
    [
      "ĠB",
      "u"
    ],
    [
      "u",
      "r"
    ],
    [
      "u",
      "s"
    ],
    [
      "u",
      "n"
    ],
    [
      "u",
      "t"
    ],
    [
      "u",
      "l"
    ],
    [
      "u",
      "c"
    ],
    [
      "u",
      "b"
    ],
    [
      "u",
      "g"
    ],
    [
      "l",
      "ed"
    ],
    [
      "h",
      "o"
    ],
    [
      "-",
      "-"
    ],
    [
      "oug",
      "h"
    ],
    [
      "h",
      "er"
    ],
    [
      "iz",
      "ed"
    ],
    [
      "Ġavail",
      "a"
    ],
    [
      "a",
      "b"
    ],
    [
      "Ġ",
      "in"
    ],
    [
      "Ġstor",
      "e"
    ],
    [
      "b",
      "r"
    ],
    [
      "r",
      "a"
    ],
    [
      "r",
      "e"
    ],
    [
      "r",
      "y"
    ],
    [
      "a",
      "b"
    ],
    [
      "r",
      "o"
    ],
    [
      "r",
      "i"
    ],
    [
      "Ġa",
      "b"
    ],
    [
      "e",
      "b"
    ],
    [
      "h",
      "y"
    ],
    [
      "c",
      "h"
    ],
    [
      "t",
      "h"
    ],
    [
      "W",
      "h"
    ],
    [
      "s",
      "h"
    ],
    [
      "y",
      "s"
    ],
    [
      "y",
      ","
    ],
    [
      "y",
      "."
    ],
    [
      "p",
      "h"
    ],
    [
      "t",
      "on"
    ],
    [
      "a",
      "t"
    ],
    [
      "s",
      "t"
    ],
    [
      "n",
      "t"
    ],
    [
      "r",
      "t"
    ],
    [
      "u",
      "t"
    ],
    [
      "ou",
      "t"
    ],
    [
      "o",
      "t"
    ],
    [
      "t",
      "t"
    ],
    [
      "es",
      "t"
    ],
    [
      "p",
      "t"
    ],
    [
      "on",
      "e"
    ],
    [
      "on",
      "s"
    ],
    [
      "in",
      "t"
    ],
    [
      "on",
      "t"
    ],
    [
      "ĠO",
      "u"
    ],
    [
      "u",
      "r"
    ],
    [
      "u",
      "t"
    ],
    [
      "u",
      "a"
    ],
    [
      "ev",
      "er"
    ],
    [
      "er",
      "e"
    ],
    [
      "b",
      "ou"
    ],
    [
      "a",
      "b"
    ],
    [
      "ou",
      "t"
    ],
    [
      "ou",
      "r"
    ],
    [
      "Ġs",
      "uch"
    ],
    [
      "ĠT",
      "r"
    ],
    [
      "r",
      "a"
    ],
    [
      "r",
      "e"
    ],
    [
      "r",
      "y"
    ],
    [
      "r",
      "o"
    ],
    [
      "r",
      "i"
    ],
    [
      "on",
      "d"
    ],
    [
      "d",
      "a"
    ],
    [
      "d",
      "e"
    ],
    [
      "d",
      "s"
    ],
    [
      "Ġus",
      "e"
    ],
    [
      "Ġbr",
      "ows"
    ],
    [
      "Ġg",
      "et"
    ],
    [
      "l",
      "i"
    ],
    [
      "ĠW",
      "h"
    ],
    [
      "h",
      "a"
    ],
    [
      "h",
      "er"
    ],
    [
      "h",
      "e"
    ],
    [
      "n",
      "k"
    ],
    [
      "a",
      "n"
    ],
    [
      "u",
      "n"
    ],
    [
      "l",
      "i"
    ],
    [
      "Ġad",
      "v"
    ],
    [
      "v",
      "e"
    ],
    [
      "Ġa",
      "m"
    ],
    [
      "m",
      "a"
    ],
    [
      "m",
      "e"
    ],
    [
      "m",
      "p"
    ],
    [
      "eg",
      "a"
    ],
    [
      "a",
      "n"
    ],
    [
      "a",
      "t"
    ],
    [
      "a",
      "r"
    ],
    [
      "a",
      "l"
    ],
    [
      "a",
      "c"
    ],
    [
      "a",
      "s"
    ],
    [
      "a",
      "m"
    ],
    [
      "a",
      "d"
    ],
    [
      "a",
      "b"
    ],
    [
      "a",
      "ll"
    ],
    [
      "a",
      "v"
    ],
    [
      "a",
      "tion"
    ],
    [
      "h",
      "or"
    ],
    [
      "c",
      "h"
    ],
    [
      "t",
      "h"
    ],
    [
      "T",
      "h"
    ],
    [
      "or",
      "e"
    ],
    [
      "s",
      "h"
    ],
    [
      "or",
      "t"
    ],
    [
      "p",
      "h"
    ],
    [
      "r",
      "g"
    ],
    [
      "at",
      "eg"
    ],
    [
      "j",
      "ect"
    ],
    [
      "Ġacc",
      "ount"
    ],
    [
      "h",
      "o"
    ],
    [
      "A",
      "n"
    ],
    [
      "n",
      "d"
    ],
    [
      "n",
      "t"
    ],
    [
      "n",
      "c"
    ],
    [
      "n",
      "a"
    ],
    [
      "n",
      "g"
    ],
    [
      "n",
      "s"
    ],
    [
      "n",
      "y"
    ],
    [
      "Ġtop",
      "ic"
    ],
    [
      "if",
      "y"
    ],
    [
      "y",
      "."
    ],
    [
      "y",
      ","
    ],
    [
      "Ġb",
      "eaut"
    ],
    [
      "or",
      "r"
    ],
    [
      "r",
      "a"
    ],
    [
      "r",
      "e"
    ],
    [
      "r",
      "y"
    ],
    [
      "r",
      "o"
    ],
    [
      "r",
      "i"
    ],
    [
      "r",
      "es"
    ],
    [
      "Ġins",
      "t"
    ],
    [
      "t",
      "a"
    ],
    [
      "t",
      "e"
    ],
    [
      "t",
      "r"
    ],
    [
      "Ġprov",
      "ide"
    ],
    [
      "Ġth",
      "r"
    ],
    [
      "r",
      "a"
    ],
    [
      "r",
      "e"
    ],
    [
      "r",
      "o"
    ],
    [
      "r",
      "es"
    ],
    [
      "Ġmon",
      "t"
    ],
    [
      "t",
      "h"
    ],
    [
      "t",
      "o"
    ],
    [
      "Ġat",
      "t"
    ],
    [
      "t",
      "a"
    ],
    [
      "t",
      "e"
    ],
    [
      "t",
      "h"
    ],
    [
      "t",
      "r"
    ],
    [
      "t",
      "ic"
    ],
    [
      "ion",
      ","
    ],
    [
      "t",
      "ion"
    ],
    [
      "Ġsom",
      "e"
    ],
    [
      "e",
      "b"
    ],
    [
      "Ġm",
      "u"
    ],
    [
      "u",
      "r"
    ],
    [
      "u",
      "s"
    ],
    [
      "u",
      "n"
    ],
    [
      "u",
      "t"
    ],
    [
      "u",
      "l"
    ],
    [
      "u",
      "c"
    ],
    [
      "u",
      "g"
    ],
    [
      "Ġf",
      "in"
    ],
    [
      "in",
      "e"
    ],
    [
      "in",
      "t"
    ],
    [
      "in",
      "d"
    ],
    [
      "h",
      "is"
    ],
    [
      "es",
      "e"
    ],
    [
      "Ġ",
      "ed"
    ],
    [
      "âĢĿ",
      ","
    ],
    [
      "Ġhe",
      "lp"
    ],
    [
      "O",
      "N"
    ],
    [
      "Ġa",
      "b"
    ],
    [
      "t",
      "i"
    ],
    [
      "-",
      "1"
    ],
    [
      "a",
      "u"
    ],
    [
      "o",
      "ber"
    ],
    [
      "Ġs",
      "o"
    ],
    [
      "t",
      "o"
    ],
    [
      "l",
      "or"
    ],
    [
      "a",
      "l"
    ],
    [
      "e",
      "l"
    ],
    [
      "i",
      "l"
    ],
    [
      "o",
      "l"
    ],
    [
      "p",
      "l"
    ],
    [
      "or",
      "e"
    ],
    [
      "or",
      "m"
    ],
    [
      "or",
      "d"
    ],
    [
      "Ġ202",
      "4"
    ],
    [
      "o",
      "y"
    ],
    [
      "Ġt",
      "o"
    ],
    [
      "T",
      "o"
    ],
    [
      "r",
      "o"
    ],
    [
      "Ġ",
      "o"
    ],
    [
      "Ġs",
      "o"
    ],
    [
      "Ġpr",
      "o"
    ],
    [
      "s",
      "o"
    ],
    [
      "l",
      "o"
    ],
    [
      "y",
      "s"
    ],
    [
      "y",
      "."
    ],
    [
      "y",
      ","
    ],
    [
      "t",
      "o"
    ],
    [
      "h",
      "o"
    ],
    [
      "Ġd",
      "ays"
    ],
    [
      "Ġth",
      "em"
    ],
    [
      "d",
      "ing"
    ],
    [
      "t",
      "l"
    ],
    [
      "l",
      "e"
    ],
    [
      "l",
      "y"
    ],
    [
      "s",
      "t"
    ],
    [
      "l",
      "a"
    ],
    [
      "c",
      "t"
    ],
    [
      "n",
      "t"
    ],
    [
      "r",
      "t"
    ],
    [
      "u",
      "t"
    ],
    [
      "ou",
      "t"
    ],
    [
      "o",
      "t"
    ],
    [
      "ec",
      "t"
    ],
    [
      "t",
      "t"
    ],
    [
      "es",
      "t"
    ],
    [
      "p",
      "t"
    ],
    [
      "l",
      "es"
    ],
    [
      "l",
      "o"
    ],
    [
      "in",
      "t"
    ],
    [
      "or",
      "t"
    ],
    [
      "on",
      "t"
    ],
    [
      "l",
      "in"
    ],
    [
      "l",
      "ed"
    ],
    [
      "t",
      "."
    ],
    [
      "a",
      "t"
    ],
    [
      "s",
      "t"
    ],
    [
      "c",
      "t"
    ],
    [
      "n",
      "t"
    ],
    [
      "r",
      "t"
    ],
    [
      "u",
      "t"
    ],
    [
      "ou",
      "t"
    ],
    [
      "o",
      "t"
    ],
    [
      "ec",
      "t"
    ],
    [
      "t",
      "t"
    ],
    [
      "es",
      "t"
    ],
    [
      "p",
      "t"
    ],
    [
      ".",
      "."
    ],
    [
      "in",
      "t"
    ],
    [
      "or",
      "t"
    ],
    [
      "on",
      "t"
    ],
    [
      "ing",
      "."
    ],
    [
      "t",
      "ing"
    ],
    [
      ".",
      "."
    ],
    [
      "o",
      "o"
    ],
    [
      "P",
      "R"
    ],
    [
      "it",
      "e"
    ],
    [
      "-",
      "c"
    ],
    [
      "c",
      "h"
    ],
    [
      "c",
      "r"
    ],
    [
      "c",
      "a"
    ],
    [
      "Ġk",
      "n"
    ],
    [
      "n",
      "a"
    ],
    [
      "n",
      "e"
    ],
    [
      "C",
      "a"
    ],
    [
      "a",
      "n"
    ],
    [
      "a",
      "t"
    ],
    [
      "a",
      "r"
    ],
    [
      "a",
      "l"
    ],
    [
      "a",
      "c"
    ],
    [
      "a",
      "s"
    ],
    [
      "a",
      "m"
    ],
    [
      "a",
      "d"
    ],
    [
      "a",
      "b"
    ],
    [
      "a",
      "ll"
    ],
    [
      "a",
      "p"
    ],
    [
      "v",
      "a"
    ],
    [
      "ĠC",
      "om"
    ],
    [
      "om",
      "e"
    ],
    [
      "Ġwh",
      "o"
    ],
    [
      "o",
      "l"
    ],
    [
      "g",
      "h"
    ],
    [
      "l",
      "ow"
    ],
    [
      "a",
      "l"
    ],
    [
      "e",
      "l"
    ],
    [
      "i",
      "l"
    ],
    [
      "b",
      "l"
    ],
    [
      "i",
      "p"
    ],
    [
      "o",
      "m"
    ],
    [
      "Ġ1",
      "1"
    ],
    [
      "Ġcu",
      "stom"
    ],
    [
      "er",
      "ing"
    ],
    [
      "t",
      "er"
    ],
    [
      "h",
      "er"
    ],
    [
      "ex",
      "t"
    ],
    [
      "t",
      "a"
    ],
    [
      "t",
      "s"
    ],
    [
      "t",
      "u"
    ],
    [
      "t",
      "r"
    ],
    [
      "t",
      "ing"
    ],
    [
      "t",
      "i"
    ],
    [
      "g",
      "u"
    ],
    [
      "u",
      "r"
    ],
    [
      "u",
      "s"
    ],
    [
      "a",
      "g"
    ],
    [
      "u",
      "n"
    ],
    [
      "u",
      "l"
    ],
    [
      "u",
      "a"
    ],
    [
      "n",
      "g"
    ],
    [
      "g",
      "r"
    ],
    [
      "Ġn",
      "um"
    ],
    [
      "d",
      "ing"
    ],
    [
      "em",
      "ent"
    ],
    [
      "M",
      "a"
    ],
    [
      "u",
      "g"
    ],
    [
      "em",
      "ents"
    ],
    [
      "en",
      "a"
    ],
    [
      "a",
      "n"
    ],
    [
      "a",
      "t"
    ],
    [
      "a",
      "r"
    ],
    [
      "a",
      "l"
    ],
    [
      "a",
      "c"
    ],
    [
      "a",
      "s"
    ],
    [
      "a",
      "g"
    ],
    [
      "a",
      "m"
    ],
    [
      "a",
      "d"
    ],
    [
      "a",
      "b"
    ],
    [
      "a",
      "i"
    ],
    [
      "a",
      "v"
    ],
    [
      "Ġ",
      "en"
    ],
    [
      "a",
      "tion"
    ],
    [
      "a",
      "u"
    ],
    [
      "Ġtha",
      "n"
    ],
    [
      "Ġt",
      "echn"
    ],
    [
      "l",
      "ic"
    ],
    [
      "or",
      "a"
    ],
    [
      "a",
      "n"
    ],
    [
      "a",
      "t"
    ],
    [
      "a",
      "r"
    ],
    [
      "a",
      "l"
    ],
    [
      "a",
      "c"
    ],
    [
      "a",
      "s"
    ],
    [
      "a",
      "g"
    ],
    [
      "a",
      "m"
    ],
    [
      "a",
      "d"
    ],
    [
      "a",
      "b"
    ],
    [
      "a",
      "v"
    ],
    [
      "a",
      "tion"
    ],
    [
      "a",
      "k"
    ],
    [
      "c",
      "u"
    ],
    [
      "u",
      "r"
    ],
    [
      "a",
      "c"
    ],
    [
      "u",
      "s"
    ],
    [
      "u",
      "t"
    ],
    [
      "u",
      "l"
    ],
    [
      "r",
      "c"
    ],
    [
      "u",
      "b"
    ],
    [
      "u",
      "p"
    ],
    [
      "e",
      "c"
    ],
    [
      "of",
      "t"
    ],
    [
      "t",
      "a"
    ],
    [
      "t",
      "e"
    ],
    [
      "t",
      "er"
    ],
    [
      "t",
      "s"
    ],
    [
      "Ġtra",
      "n"
    ],
    [
      "n",
      "c"
    ],
    [
      "n",
      "g"
    ],
    [
      "n",
      "s"
    ],
    [
      "r",
      "n"
    ],
    [
      "Ġ",
      "/"
    ],
    [
      "Ġtran",
      "s"
    ],
    [
      "s",
      ","
    ],
    [
      "s",
      "s"
    ],
    [
      "s",
      "h"
    ],
    [
      "Ġb",
      "u"
    ],
    [
      "r",
      "ed"
    ],
    [
      "m",
      "er"
    ],
    [
      "a",
      "m"
    ],
    [
      "er",
      "e"
    ],
    [
      "or",
      "m"
    ],
    [
      "e",
      "m"
    ],
    [
      "o",
      "m"
    ],
    [
      "ef",
      "u"
    ],
    [
      "u",
      "r"
    ],
    [
      "u",
      "s"
    ],
    [
      "u",
      "n"
    ],
    [
      "u",
      "t"
    ],
    [
      "u",
      "l"
    ],
    [
      "u",
      "b"
    ],
    [
      "u",
      "g"
    ],
    [
      "Ġpr",
      "of"
    ],
    [
      "Ġpr",
      "ic"
    ],
    [
      "ic",
      "e"
    ],
    [
      "Ġ202",
      "3"
    ],
    [
      "Ġpost",
      "s"
    ],
    [
      "s",
      "."
    ],
    [
      "s",
      ","
    ],
    [
      "Ġth",
      "ird"
    ],
    [
      "Ġ202",
      "5"
    ],
    [
      "Ġp",
      "oss"
    ],
    [
      "o",
      "od"
    ],
    [
      "l",
      "o"
    ],
    [
      "t",
      "o"
    ],
    [
      "h",
      "o"
    ],
    [
      "c",
      "c"
    ],
    [
      "I",
      "N"
    ],
    [
      "Ġp",
      "er"
    ],
    [
      "Ġexperienc",
      "e"
    ],
    [
      "ic",
      "k"
    ],
    [
      "ĠS",
      "ept"
    ],
    [
      "Ġcr",
      "eat"
    ],
    [
      "Ġagr",
      "e"
    ],
    [
      "e",
      "e"
    ],
    [
      "o",
      "in"
    ],
    [
      "d",
      "."
    ],
    [
      "n",
      "d"
    ],
    [
      "a",
      "d"
    ],
    [
      "r",
      "d"
    ],
    [
      "o",
      "d"
    ],
    [
      ".",
      "."
    ],
    [
      "or",
      "d"
    ],
    [
      "in",
      "d"
    ],
    [
      "essa",
      "g"
    ],
    [
      "g",
      "e"
    ],
    [
      "ĠE",
      "n"
    ],
    [
      "n",
      "d"
    ],
    [
      "n",
      "t"
    ],
    [
      "n",
      "c"
    ],
    [
      "n",
      "a"
    ],
    [
      "n",
      "g"
    ],
    [
      "n",
      "e"
    ],
    [
      "n",
      "s"
    ],
    [
      "r",
      "ket"
    ],
    [
      "a",
      "r"
    ],
    [
      "Ġev",
      "ery"
    ],
    [
      "Ġs",
      "ign"
    ],
    [
      "r",
      "ity"
    ],
    [
      "a",
      "r"
    ],
    [
      "u",
      "r"
    ],
    [
      "i",
      "b"
    ],
    [
      "oll",
      "ow"
    ],
    [
      "ĠPl",
      "ease"
    ],
    [
      "Ġcont",
      "ent"
    ],
    [
      "if",
      "ic"
    ],
    [
      "d",
      "ay"
    ],
    [
      "n",
      "d"
    ],
    [
      "a",
      "d"
    ],
    [
      "r",
      "d"
    ],
    [
      "o",
      "d"
    ],
    [
      "b",
      "ility"
    ],
    [
      "a",
      "b"
    ],
    [
      "o",
      "b"
    ],
    [
      "Ġa",
      "b"
    ],
    [
      "m",
      "ents"
    ],
    [
      "a",
      "m"
    ],
    [
      "e",
      "m"
    ],
    [
      "u",
      "e"
    ],
    [
      "Ġ(",
      "2"
    ],
    [
      "ĠN",
      "ov"
    ],
    [
      "ĠCont",
      "r"
    ],
    [
      "r",
      "a"
    ],
    [
      "r",
      "i"
    ],
    [
      "r",
      "o"
    ],
    [
      "e",
      ":"
    ],
    [
      "l",
      "e"
    ],
    [
      "r",
      "e"
    ],
    [
      "Ġb",
      "e"
    ],
    [
      "c",
      "e"
    ],
    [
      "t",
      "e"
    ],
    [
      "g",
      "e"
    ],
    [
      "e",
      "e"
    ],
    [
      "s",
      "e"
    ],
    [
      "er",
      "e"
    ],
    [
      "i",
      "e"
    ],
    [
      "h",
      "e"
    ],
    [
      "in",
      "e"
    ],
    [
      "iv",
      "e"
    ],
    [
      "d",
      "e"
    ],
    [
      "m",
      "e"
    ],
    [
      "or",
      "e"
    ],
    [
      "k",
      "e"
    ],
    [
      "on",
      "e"
    ],
    [
      "om",
      "e"
    ],
    [
      "ic",
      "e"
    ],
    [
      "es",
      "e"
    ],
    [
      "it",
      "e"
    ],
    [
      "u",
      "e"
    ],
    [
      "Ġd",
      "r"
    ],
    [
      "r",
      "a"
    ],
    [
      "r",
      "e"
    ],
    [
      "r",
      "y"
    ],
    [
      "r",
      "i"
    ],
    [
      "r",
      "o"
    ],
    [
      "r",
      "s"
    ],
    [
      "Ġ",
      "|"
    ],
    [
      "ĠU",
      "n"
    ],
    [
      "n",
      "d"
    ],
    [
      "n",
      "t"
    ],
    [
      "n",
      "c"
    ],
    [
      "n",
      "a"
    ],
    [
      "n",
      "g"
    ],
    [
      "n",
      "e"
    ],
    [
      "n",
      "s"
    ],
    [
      "f",
      "er"
    ],
    [
      "Ġinc",
      "lud"
    ],
    [
      "Ġ202",
      "2"
    ],
    [
      "is",
      "c"
    ],
    [
      "c",
      "h"
    ],
    [
      "c",
      "e"
    ],
    [
      "c",
      "r"
    ],
    [
      "c",
      "a"
    ],
    [
      "ers",
      "t"
    ],
    [
      "t",
      "a"
    ],
    [
      "t",
      "r"
    ],
    [
      "t",
      "ic"
    ],
    [
      "t",
      "o"
    ],
    [
      "t",
      ","
    ],
    [
      "a",
      "t"
    ],
    [
      "s",
      "t"
    ],
    [
      "c",
      "t"
    ],
    [
      "n",
      "t"
    ],
    [
      "r",
      "t"
    ],
    [
      "u",
      "t"
    ],
    [
      "ou",
      "t"
    ],
    [
      "o",
      "t"
    ],
    [
      "ec",
      "t"
    ],
    [
      "t",
      "t"
    ],
    [
      "es",
      "t"
    ],
    [
      "p",
      "t"
    ],
    [
      "in",
      "t"
    ],
    [
      "or",
      "t"
    ],
    [
      "on",
      "t"
    ],
    [
      "et",
      "w"
    ],
    [
      "w",
      "a"
    ],
    [
      "Ġg",
      "u"
    ],
    [
      "u",
      "r"
    ],
    [
      "u",
      "s"
    ],
    [
      "u",
      "n"
    ],
    [
      "u",
      "t"
    ],
    [
      "u",
      "a"
    ],
    [
      "Ġcan",
      "n"
    ],
    [
      "n",
      "a"
    ],
    [
      "i",
      "ent"
    ],
    [
      "r",
      "i"
    ],
    [
      "a",
      "i"
    ],
    [
      "l",
      "i"
    ],
    [
      "t",
      "i"
    ],
    [
      "b",
      "u"
    ],
    [
      "u",
      "r"
    ],
    [
      "u",
      "s"
    ],
    [
      "u",
      "n"
    ],
    [
      "u",
      "t"
    ],
    [
      "u",
      "l"
    ],
    [
      "a",
      "b"
    ],
    [
      "u",
      "b"
    ],
    [
      "e",
      "b"
    ],
    [
      "Ġth",
      "er"
    ],
    [
      "er",
      "e"
    ],
    [
      "S",
      "t"
    ],
    [
      "t",
      "a"
    ],
    [
      "t",
      "u"
    ],
    [
      "t",
      "r"
    ],
    [
      "t",
      "y"
    ],
    [
      "t",
      "o"
    ],
    [
      "t",
      "i"
    ],
    [
      "ev",
      "er"
    ],
    [
      "u",
      "d"
    ],
    [
      "ic",
      "t"
    ],
    [
      "t",
      "a"
    ],
    [
      "t",
      "ion"
    ],
    [
      "t",
      "s"
    ],
    [
      "t",
      "ed"
    ],
    [
      "t",
      "u"
    ],
    [
      "t",
      "ing"
    ],
    [
      "t",
      "o"
    ],
    [
      "l",
      "ic"
    ],
    [
      "Ġf",
      "i"
    ],
    [
      "Ġinf",
      "orma"
    ],
    [
      "Ġpar",
      "t"
    ],
    [
      "t",
      "a"
    ],
    [
      "t",
      "e"
    ],
    [
      "t",
      "s"
    ],
    [
      "t",
      "ed"
    ],
    [
      "t",
      "ing"
    ],
    [
      "t",
      "y"
    ],
    [
      "t",
      "ic"
    ],
    [
      "t",
      "i"
    ],
    [
      "er",
      "c"
    ],
    [
      "c",
      "h"
    ],
    [
      "c",
      "e"
    ],
    [
      "t",
      "er"
    ],
    [
      "h",
      "er"
    ],
    [
      "c",
      "r"
    ],
    [
      "c",
      "a"
    ],
    [
      "p",
      "ing"
    ],
    [
      "o",
      "p"
    ],
    [
      "p",
      "p"
    ],
    [
      "a",
      "p"
    ],
    [
      "m",
      "p"
    ],
    [
      "i",
      "p"
    ],
    [
      "t",
      "iv"
    ],
    [
      "a",
      "t"
    ],
    [
      "s",
      "t"
    ],
    [
      "c",
      "t"
    ],
    [
      "o",
      "t"
    ],
    [
      "iv",
      "e"
    ],
    [
      "ec",
      "t"
    ],
    [
      "t",
      "t"
    ],
    [
      "es",
      "t"
    ],
    [
      "p",
      "t"
    ],
    [
      "or",
      "t"
    ],
    [
      "ĠSt",
      "a"
    ],
    [
      "a",
      "n"
    ],
    [
      "a",
      "t"
    ],
    [
      "a",
      "r"
    ],
    [
      "a",
      "c"
    ],
    [
      "a",
      "s"
    ],
    [
      "a",
      "g"
    ],
    [
      "a",
      "m"
    ],
    [
      "a",
      "d"
    ],
    [
      "a",
      "b"
    ],
    [
      "a",
      "ll"
    ],
    [
      "a",
      "p"
    ],
    [
      "a",
      "tion"
    ],
    [
      "a",
      "u"
    ],
    [
      "Ġpa",
      "g"
    ],
    [
      "g",
      "e"
    ],
    [
      "ibl",
      "e"
    ],
    [
      "Ġcont",
      "r"
    ],
    [
      "r",
      "a"
    ],
    [
      "r",
      "e"
    ],
    [
      "r",
      "i"
    ],
    [
      "r",
      "o"
    ],
    [
      "Ġall",
      "ow"
    ],
    [
      "âĢĻ",
      "t"
    ],
    [
      "t",
      "s"
    ],
    [
      "t",
      "o"
    ],
    [
      "t",
      "c"
    ],
    [
      "a",
      "t"
    ],
    [
      "s",
      "t"
    ],
    [
      "c",
      "t"
    ],
    [
      "c",
      "h"
    ],
    [
      "n",
      "t"
    ],
    [
      "r",
      "t"
    ],
    [
      "u",
      "t"
    ],
    [
      "ou",
      "t"
    ],
    [
      "o",
      "t"
    ],
    [
      "c",
      "r"
    ],
    [
      "p",
      "t"
    ],
    [
      "c",
      "a"
    ],
    [
      "on",
      "t"
    ],
    [
      "Ġ202",
      "0"
    ],
    [
      "r",
      "ing"
    ],
    [
      "Ġcan",
      "c"
    ],
    [
      "c",
      "e"
    ],
    [
      "ĠCon",
      "s"
    ],
    [
      "s",
      "t"
    ],
    [
      "s",
      ","
    ],
    [
      "s",
      "e"
    ],
    [
      "s",
      "u"
    ],
    [
      "s",
      "h"
    ],
    [
      "s",
      "o"
    ],
    [
      "e",
      ","
    ],
    [
      "ubs",
      "c"
    ],
    [
      "c",
      "r"
    ],
    [
      "l",
      "ing"
    ],
    [
      "a",
      "l"
    ],
    [
      "e",
      "l"
    ],
    [
      "i",
      "l"
    ],
    [
      "o",
      "l"
    ],
    [
      "b",
      "l"
    ],
    [
      "p",
      "l"
    ],
    [
      "u",
      "l"
    ],
    [
      "Ġf",
      "e"
    ],
    [
      "ĠA",
      "ll"
    ],
    [
      "l",
      "ica"
    ],
    [
      "a",
      "l"
    ],
    [
      "e",
      "l"
    ],
    [
      "i",
      "l"
    ],
    [
      "o",
      "l"
    ],
    [
      "b",
      "l"
    ],
    [
      "u",
      "l"
    ],
    [
      "p",
      "l"
    ],
    [
      ".",
      "0"
    ],
    [
      "Ġb",
      "l"
    ],
    [
      "l",
      "e"
    ],
    [
      "l",
      "a"
    ],
    [
      "l",
      "s"
    ],
    [
      "l",
      "u"
    ],
    [
      "l",
      "o"
    ],
    [
      "l",
      "ed"
    ],
    [
      "l",
      "in"
    ],
    [
      "ĠTh",
      "es"
    ],
    [
      "ĠThes",
      "e"
    ],
    [
      "Ġin",
      "v"
    ],
    [
      "v",
      "a"
    ],
    [
      "ubsc",
      "r"
    ],
    [
      "r",
      "i"
    ],
    [
      "Ġapp",
      "r"
    ],
    [
      "r",
      "a"
    ],
    [
      "r",
      "o"
    ],
    [
      "Ġreg",
      "ist"
    ],
    [
      "Ġcon",
      "d"
    ],
    [
      "r",
      "k"
    ],
    [
      "ĠS",
      "p"
    ],
    [
      "p",
      "l"
    ],
    [
      "p",
      "a"
    ],
    [
      "p",
      "r"
    ],
    [
      "p",
      "h"
    ],
    [
      "Ġpur",
      "p"
    ],
    [
      "p",
      "l"
    ],
    [
      "f",
      "u"
    ],
    [
      "u",
      "r"
    ],
    [
      "u",
      "s"
    ],
    [
      "u",
      "n"
    ],
    [
      "u",
      "t"
    ],
    [
      "u",
      "l"
    ],
    [
      "u",
      "e"
    ],
    [
      "Ġus",
      "e"
    ],
    [
      "Ġ202",
      "1"
    ],
    [
      "t",
      "."
    ],
    [
      "Ġm",
      "e"
    ],
    [
      "e",
      "ep"
    ],
    [
      "l",
      "e"
    ],
    [
      "r",
      "e"
    ],
    [
      "t",
      "e"
    ],
    [
      "d",
      "e"
    ],
    [
      "Ġs",
      "e"
    ],
    [
      "Ġw",
      "e"
    ],
    [
      "k",
      "e"
    ],
    [
      "Ġd",
      "e"
    ],
    [
      "erst",
      "a"
    ],
    [
      "a",
      "n"
    ],
    [
      "a",
      "t"
    ],
    [
      "a",
      "r"
    ],
    [
      "Ġa",
      "p"
    ],
    [
      "p",
      "a"
    ],
    [
      "p",
      "r"
    ],
    [
      "p",
      "t"
    ],
    [
      "Ġr",
      "es"
    ],
    [
      "ĠA",
      "s"
    ],
    [
      "s",
      "t"
    ],
    [
      "s",
      "s"
    ],
    [
      "s",
      "u"
    ],
    [
      "s",
      "h"
    ],
    [
      "Ġno",
      "t"
    ],
    [
      "t",
      "h"
    ],
    [
      "t",
      "e"
    ],
    [
      "t",
      "s"
    ],
    [
      "t",
      "ed"
    ],
    [
      "t",
      "ing"
    ],
    [
      "t",
      "es"
    ],
    [
      "t",
      "ic"
    ],
    [
      "Ġmod",
      "erat"
    ],
    [
      "Ġf",
      "irst"
    ],
    [
      "h",
      "ip"
    ],
    [
      "s",
      "h"
    ],
    [
      "Ġwh",
      "a"
    ],
    [
      "a",
      "t"
    ],
    [
      "a",
      "r"
    ],
    [
      "a",
      "c"
    ],
    [
      "Ġstor",
      "ed"
    ],
    [
      "i",
      "ous"
    ],
    [
      "r",
      "i"
    ],
    [
      "l",
      "i"
    ],
    [
      "t",
      "i"
    ],
    [
      "Ġcook",
      "ies"
    ],
    [
      "ĠD",
      "a"
    ],
    [
      "a",
      "n"
    ],
    [
      "a",
      "t"
    ],
    [
      "a",
      "r"
    ],
    [
      "a",
      "l"
    ],
    [
      "a",
      "c"
    ],
    [
      "a",
      "s"
    ],
    [
      "a",
      "g"
    ],
    [
      "a",
      "m"
    ],
    [
      "a",
      "d"
    ],
    [
      "a",
      "b"
    ],
    [
      "a",
      "i"
    ],
    [
      "a",
      "ll"
    ],
    [
      "a",
      "p"
    ],
    [
      "a",
      "v"
    ],
    [
      "a",
      "k"
    ],
    [
      "a",
      "u"
    ],
    [
      "im",
      "a"
    ],
    [
      "a",
      "n"
    ],
    [
      "a",
      "t"
    ],
    [
      "a",
      "r"
    ],
    [
      "a",
      "l"
    ],
    [
      "a",
      "c"
    ],
    [
      "a",
      "g"
    ],
    [
      "a",
      "i"
    ],
    [
      "a",
      "ll"
    ],
    [
      "a",
      "tion"
    ],
    [
      "Ġ1",
      "0"
    ],
    [
      "Ġth",
      "en"
    ],
    [
      "Ġs",
      "earch"
    ],
    [
      "ĠE",
      "x"
    ],
    [
      "Ġwha",
      "t"
    ],
    [
      "t",
      "e"
    ],
    [
      "t",
      "s"
    ],
    [
      "Ġd",
      "etai"
    ],
    [
      "r",
      "u"
    ],
    [
      "t",
      "."
    ],
    [
      "Ġ201",
      "9"
    ],
    [
      "e",
      "et"
    ],
    [
      "l",
      "e"
    ],
    [
      "r",
      "e"
    ],
    [
      "Ġb",
      "e"
    ],
    [
      "h",
      "e"
    ],
    [
      "m",
      "e"
    ],
    [
      "ĠB",
      "y"
    ],
    [
      "y",
      "s"
    ],
    [
      "Ġd",
      "if"
    ],
    [
      "ĠC",
      "ook"
    ],
    [
      "Ġf",
      "e"
    ],
    [
      "ĠYou",
      "r"
    ],
    [
      "r",
      "s"
    ],
    [
      "I",
      "f"
    ],
    [
      ")",
      "."
    ],
    [
      ".",
      "."
    ],
    [
      "iva",
      "t"
    ],
    [
      "t",
      "e"
    ],
    [
      "t",
      "ion"
    ],
    [
      "t",
      "er"
    ],
    [
      "t",
      "ed"
    ],
    [
      "t",
      "ing"
    ],
    [
      "t",
      "es"
    ],
    [
      "Ġitem",
      "s"
    ],
    [
      "s",
      "."
    ],
    [
      "s",
      ","
    ],
    [
      "o",
      "es"
    ],
    [
      "Ġt",
      "o"
    ],
    [
      "Ġd",
      "o"
    ],
    [
      "es",
      ","
    ],
    [
      "es",
      "t"
    ],
    [
      "es",
      "."
    ],
    [
      "Ġp",
      "o"
    ],
    [
      "t",
      "o"
    ],
    [
      "h",
      "o"
    ],
    [
      "ĠS",
      "u"
    ],
    [
      "u",
      "r"
    ],
    [
      "u",
      "s"
    ],
    [
      "u",
      "n"
    ],
    [
      "u",
      "t"
    ],
    [
      "u",
      "l"
    ],
    [
      "u",
      "a"
    ],
    [
      "u",
      "c"
    ],
    [
      "u",
      "b"
    ],
    [
      "u",
      "p"
    ],
    [
      "u",
      "g"
    ],
    [
      "u",
      "e"
    ],
    [
      "u",
      "d"
    ],
    [
      "Ġinf",
      "orm"
    ],
    [
      "ĠA",
      "d"
    ],
    [
      "d",
      "a"
    ],
    [
      "d",
      "e"
    ],
    [
      "d",
      "s"
    ],
    [
      "Ġbu",
      "siness"
    ],
    [
      "b",
      "u"
    ],
    [
      "ĠA",
      "r"
    ],
    [
      "r",
      "a"
    ],
    [
      "r",
      "e"
    ],
    [
      "r",
      "t"
    ],
    [
      "r",
      "y"
    ],
    [
      "r",
      "d"
    ],
    [
      "r",
      "s"
    ],
    [
      "r",
      "i"
    ],
    [
      "r",
      "r"
    ],
    [
      "r",
      "c"
    ],
    [
      "r",
      "o"
    ],
    [
      "r",
      "g"
    ],
    [
      "r",
      "n"
    ],
    [
      "r",
      "k"
    ],
    [
      "r",
      "u"
    ],
    [
      "ĠB",
      "r"
    ],
    [
      "r",
      "a"
    ],
    [
      "r",
      "e"
    ],
    [
      "r",
      "t"
    ],
    [
      "r",
      "y"
    ],
    [
      "r",
      "i"
    ],
    [
      "r",
      "es"
    ],
    [
      "r",
      "o"
    ],
    [
      "r",
      "ed"
    ],
    [
      "r",
      "n"
    ],
    [
      "r",
      "ing"
    ],
    [
      "iat",
      "e"
    ],
    [
      "e",
      "l"
    ],
    [
      "e",
      ","
    ],
    [
      "or",
      "k"
    ],
    [
      "Ġy",
      "ear"
    ],
    [
      "Ġc",
      "ateg"
    ],
    [
      "C",
      "on"
    ],
    [
      "on",
      "s"
    ],
    [
      "on",
      "t"
    ],
    [
      "ĠS",
      "a"
    ],
    [
      "a",
      "n"
    ],
    [
      "a",
      "t"
    ],
    [
      "a",
      "r"
    ],
    [
      "a",
      "l"
    ],
    [
      "a",
      "c"
    ],
    [
      "a",
      "s"
    ],
    [
      "a",
      "g"
    ],
    [
      "a",
      "m"
    ],
    [
      "a",
      "d"
    ],
    [
      "a",
      "b"
    ],
    [
      "a",
      "i"
    ],
    [
      "a",
      "ll"
    ],
    [
      "a",
      "p"
    ],
    [
      "a",
      "v"
    ],
    [
      "a",
      "k"
    ],
    [
      "a",
      "u"
    ],
    [
      "h",
      "ing"
    ],
    [
      "c",
      "h"
    ],
    [
      "t",
      "h"
    ],
    [
      "s",
      "h"
    ],
    [
      "p",
      "h"
    ],
    [
      "g",
      "h"
    ],
    [
      "in",
      "c"
    ],
    [
      "c",
      "t"
    ],
    [
      "c",
      "h"
    ],
    [
      "c",
      "e"
    ],
    [
      "c",
      "k"
    ],
    [
      "c",
      "a"
    ],
    [
      "c",
      "r"
    ],
    [
      "Ġ",
      "in"
    ],
    [
      "o",
      "in"
    ],
    [
      "l",
      "ess"
    ],
    [
      "e",
      "l"
    ],
    [
      "i",
      "l"
    ],
    [
      "b",
      "l"
    ],
    [
      "p",
      "l"
    ],
    [
      "Ġm",
      "ost"
    ],
    [
      "oun",
      "c"
    ],
    [
      "c",
      "e"
    ],
    [
      "Ġs",
      "erv"
    ],
    [
      "Ġrece",
      "iv"
    ],
    [
      "iv",
      "e"
    ],
    [
      "ert",
      "is"
    ],
    [
      "ef",
      "f"
    ],
    [
      "f",
      "or"
    ],
    [
      "r",
      "u"
    ],
    [
      "a",
      "bl"
    ],
    [
      "r",
      "a"
    ],
    [
      "l",
      "a"
    ],
    [
      "t",
      "a"
    ],
    [
      "h",
      "a"
    ],
    [
      "u",
      "a"
    ],
    [
      "d",
      "a"
    ],
    [
      "c",
      "a"
    ],
    [
      "M",
      "a"
    ],
    [
      "v",
      "a"
    ],
    [
      "iona",
      "l"
    ],
    [
      "l",
      "e"
    ],
    [
      "l",
      "s"
    ],
    [
      "-",
      "p"
    ],
    [
      "p",
      "l"
    ],
    [
      "p",
      "r"
    ],
    [
      "p",
      "a"
    ],
    [
      "p",
      "h"
    ],
    [
      "Ġcl",
      "ic"
    ],
    [
      "h",
      "y"
    ],
    [
      "ĠPa",
      "n"
    ],
    [
      "n",
      "d"
    ],
    [
      "n",
      "t"
    ],
    [
      "n",
      "c"
    ],
    [
      "n",
      "a"
    ],
    [
      "n",
      "g"
    ],
    [
      "n",
      "e"
    ],
    [
      "i",
      "qu"
    ],
    [
      "r",
      "i"
    ],
    [
      "l",
      "i"
    ],
    [
      "t",
      "i"
    ],
    [
      "enc",
      "y"
    ],
    [
      "y",
      ","
    ],
    [
      "y",
      "."
    ],
    [
      "Ġus",
      "ing"
    ],
    [
      "d",
      "er"
    ],
    [
      "m",
      "s"
    ],
    [
      "a",
      "m"
    ],
    [
      "s",
      "."
    ],
    [
      "s",
      ","
    ],
    [
      "s",
      "e"
    ],
    [
      "s",
      "u"
    ],
    [
      "or",
      "m"
    ],
    [
      "e",
      "m"
    ],
    [
      "o",
      "m"
    ],
    [
      "Ġ201",
      "8"
    ],
    [
      "o",
      "."
    ],
    [
      "Ġt",
      "o"
    ],
    [
      "Ġd",
      "o"
    ],
    [
      "Ġ",
      "o"
    ],
    [
      "Ġs",
      "o"
    ],
    [
      "Ġpr",
      "o"
    ],
    [
      "s",
      "o"
    ],
    [
      ".",
      "."
    ],
    [
      "l",
      "o"
    ],
    [
      "Ġc",
      "o"
    ],
    [
      "r",
      "o"
    ],
    [
      "t",
      "o"
    ],
    [
      "o",
      "o"
    ],
    [
      "h",
      "o"
    ],
    [
      "Ġg",
      "a"
    ],
    [
      "a",
      "n"
    ],
    [
      "a",
      "t"
    ],
    [
      "a",
      "r"
    ],
    [
      "a",
      "l"
    ],
    [
      "a",
      "s"
    ],
    [
      "a",
      "g"
    ],
    [
      "a",
      "m"
    ],
    [
      "a",
      "d"
    ],
    [
      "a",
      "ll"
    ],
    [
      "a",
      "p"
    ],
    [
      "a",
      "v"
    ],
    [
      "a",
      "u"
    ],
    [
      "ĠServic",
      "es"
    ],
    [
      "es",
      ","
    ],
    [
      "es",
      "."
    ],
    [
      "Ġord",
      "er"
    ],
    [
      "Ġr",
      "ead"
    ],
    [
      "ook",
      "i"
    ],
    [
      "ĠB",
      "a"
    ],
    [
      "a",
      "n"
    ],
    [
      "a",
      "t"
    ],
    [
      "a",
      "r"
    ],
    [
      "a",
      "l"
    ],
    [
      "a",
      "c"
    ],
    [
      "a",
      "s"
    ],
    [
      "a",
      "g"
    ],
    [
      "a",
      "m"
    ],
    [
      "a",
      "d"
    ],
    [
      "a",
      "b"
    ],
    [
      "a",
      "i"
    ],
    [
      "a",
      "ll"
    ],
    [
      "a",
      "p"
    ],
    [
      "a",
      "v"
    ],
    [
      "a",
      "k"
    ],
    [
      "a",
      "u"
    ],
    [
      "if",
      "ica"
    ],
    [
      "g",
      "es"
    ],
    [
      "Ġim",
      "a"
    ],
    [
      "a",
      "g"
    ],
    [
      "a",
      "k"
    ],
    [
      "Ġm",
      "essag"
    ],
    [
      "Ġ201",
      "6"
    ],
    [
      "b",
      "r"
    ],
    [
      "Ġmont",
      "hs"
    ],
    [
      "p",
      "p"
    ],
    [
      "Ġpl",
      "ease"
    ],
    [
      "n",
      "k"
    ],
    [
      "ĠâĢ",
      "ĵ"
    ],
    [
      "'",
      "t"
    ],
    [
      "t",
      "h"
    ],
    [
      "t",
      "e"
    ],
    [
      "t",
      "."
    ],
    [
      "Ġqu",
      "a"
    ],
    [
      "a",
      "n"
    ],
    [
      "a",
      "t"
    ],
    [
      "a",
      "r"
    ],
    [
      "a",
      "l"
    ],
    [
      "a",
      "s"
    ],
    [
      "a",
      "m"
    ],
    [
      "a",
      "d"
    ],
    [
      "f",
      "a"
    ],
    [
      "a",
      "n"
    ],
    [
      "a",
      "r"
    ],
    [
      "a",
      "c"
    ],
    [
      "a",
      "s"
    ],
    [
      "a",
      "m"
    ],
    [
      "a",
      "d"
    ],
    [
      "a",
      "b"
    ],
    [
      "f",
      "f"
    ],
    [
      "a",
      "u"
    ],
    [
      "Ġcont",
      "inu"
    ],
    [
      "i",
      "or"
    ],
    [
      "r",
      "i"
    ],
    [
      "or",
      "e"
    ],
    [
      "or",
      "d"
    ],
    [
      "l",
      "i"
    ],
    [
      "c",
      "es"
    ],
    [
      "a",
      "c"
    ],
    [
      "n",
      "c"
    ],
    [
      "es",
      ","
    ],
    [
      "es",
      "t"
    ],
    [
      "u",
      "c"
    ],
    [
      "es",
      "."
    ],
    [
      "r",
      "c"
    ],
    [
      "c",
      "c"
    ],
    [
      "Ġth",
      "rou"
    ],
    [
      "enc",
      "e"
    ],
    [
      "e",
      "m"
    ],
    [
      "Ġac",
      "t"
    ],
    [
      "t",
      "ion"
    ],
    [
      "t",
      "s"
    ],
    [
      "t",
      "ed"
    ],
    [
      "t",
      "u"
    ],
    [
      "t",
      "r"
    ],
    [
      "t",
      "ing"
    ],
    [
      "t",
      "i"
    ],
    [
      "t",
      "."
    ],
    [
      "in",
      "f"
    ],
    [
      "f",
      "or"
    ],
    [
      "Ġ",
      "in"
    ],
    [
      "Ġs",
      "m"
    ],
    [
      "m",
      "a"
    ],
    [
      "m",
      "e"
    ],
    [
      "Ġcomp",
      "a"
    ],
    [
      "a",
      "n"
    ],
    [
      "a",
      "t"
    ],
    [
      "a",
      "r"
    ],
    [
      "a",
      "c"
    ],
    [
      "a",
      "s"
    ],
    [
      "Ġp",
      "er"
    ],
    [
      "ĠNov",
      "ember"
    ],
    [
      "Ġservic",
      "es"
    ],
    [
      "es",
      ","
    ],
    [
      "es",
      "."
    ],
    [
      "k",
      "a"
    ],
    [
      "a",
      "n"
    ],
    [
      "a",
      "t"
    ],
    [
      "a",
      "r"
    ],
    [
      "a",
      "l"
    ],
    [
      "a",
      "s"
    ],
    [
      "a",
      "m"
    ],
    [
      "a",
      "g"
    ],
    [
      "a",
      "d"
    ],
    [
      "c",
      "k"
    ],
    [
      "a",
      "b"
    ],
    [
      "a",
      "i"
    ],
    [
      "a",
      "v"
    ],
    [
      "a",
      "k"
    ],
    [
      "a",
      "u"
    ],
    [
      "r",
      "k"
    ],
    [
      "or",
      "k"
    ],
    [
      "n",
      "k"
    ],
    [
      "ĠA",
      "c"
    ],
    [
      "c",
      "t"
    ],
    [
      "c",
      "h"
    ],
    [
      "c",
      "e"
    ],
    [
      "c",
      "k"
    ],
    [
      "c",
      "a"
    ],
    [
      "c",
      "r"
    ],
    [
      "c",
      "."
    ],
    [
      "a",
      "c"
    ],
    [
      "n",
      "c"
    ],
    [
      ".",
      "."
    ],
    [
      "r",
      "c"
    ],
    [
      "Ġund",
      "er"
    ],
    [
      "g",
      "ed"
    ],
    [
      "a",
      "g"
    ],
    [
      "n",
      "g"
    ],
    [
      "r",
      "g"
    ],
    [
      "Ġ",
      "Y"
    ],
    [
      "n",
      "n"
    ],
    [
      "ĠA",
      "u"
    ],
    [
      "u",
      "r"
    ],
    [
      "u",
      "s"
    ],
    [
      "u",
      "n"
    ],
    [
      "u",
      "t"
    ],
    [
      "u",
      "c"
    ],
    [
      "u",
      "b"
    ],
    [
      "u",
      "d"
    ],
    [
      "Ġcoll",
      "ect"
    ],
    [
      "Ġ",
      "6"
    ],
    [
      "Ġ201",
      "5"
    ],
    [
      "Ġ201",
      "7"
    ],
    [
      "n",
      "u"
    ],
    [
      "t",
      "l"
    ],
    [
      "e",
      "at"
    ],
    [
      "r",
      "e"
    ],
    [
      "s",
      "e"
    ],
    [
      "h",
      "e"
    ],
    [
      "Ġ",
      "e"
    ],
    [
      "d",
      "e"
    ],
    [
      "Ġs",
      "e"
    ],
    [
      "n",
      "e"
    ],
    [
      "Ġd",
      "e"
    ],
    [
      "eve",
      "l"
    ],
    [
      "l",
      "a"
    ],
    [
      "l",
      "s"
    ],
    [
      "l",
      "o"
    ],
    [
      "l",
      "ed"
    ],
    [
      "o",
      "g"
    ],
    [
      "f",
      "u"
    ],
    [
      "ĠC",
      "l"
    ],
    [
      "l",
      "y"
    ],
    [
      "l",
      "e"
    ],
    [
      "l",
      "a"
    ],
    [
      "l",
      "u"
    ],
    [
      "l",
      "o"
    ],
    [
      "l",
      "in"
    ],
    [
      "l",
      "i"
    ],
    [
      "l",
      "ic"
    ],
    [
      "Ġ201",
      "4"
    ],
    [
      "Ġ",
      "over"
    ],
    [
      "B",
      "B"
    ],
    [
      "Ġda",
      "t"
    ],
    [
      "t",
      "a"
    ],
    [
      "t",
      "e"
    ],
    [
      "t",
      "ed"
    ],
    [
      "t",
      "ing"
    ],
    [
      "t",
      "es"
    ],
    [
      "Ġcann",
      "ot"
    ],
    [
      "t",
      ","
    ],
    [
      "e",
      "ing"
    ],
    [
      "Ġb",
      "e"
    ],
    [
      "g",
      "e"
    ],
    [
      "e",
      "e"
    ],
    [
      "ĠC",
      "o"
    ],
    [
      "o",
      "l"
    ],
    [
      "o",
      "p"
    ],
    [
      "o",
      "t"
    ],
    [
      "o",
      "d"
    ],
    [
      "o",
      "b"
    ],
    [
      "o",
      "o"
    ],
    [
      "o",
      "in"
    ],
    [
      "o",
      "m"
    ],
    [
      "o",
      "g"
    ],
    [
      "ersta",
      "n"
    ],
    [
      "n",
      "d"
    ],
    [
      "T",
      "I"
    ],
    [
      "Ġs",
      "end"
    ],
    [
      "c",
      "ed"
    ],
    [
      "a",
      "c"
    ],
    [
      "n",
      "c"
    ],
    [
      "u",
      "c"
    ],
    [
      "r",
      "c"
    ],
    [
      "era",
      "l"
    ],
    [
      "l",
      "a"
    ],
    [
      "l",
      "s"
    ],
    [
      "l",
      "i"
    ],
    [
      "i",
      "ld"
    ],
    [
      "ĠContr",
      "o"
    ],
    [
      "o",
      "l"
    ],
    [
      "Ġ",
      "eff"
    ],
    [
      "Ġm",
      "eth"
    ],
    [
      "Ġc",
      "ert"
    ],
    [
      "ĠSept",
      "ember"
    ],
    [
      "Ġr",
      "u"
    ],
    [
      "u",
      "r"
    ],
    [
      "u",
      "s"
    ],
    [
      "u",
      "n"
    ],
    [
      "u",
      "t"
    ],
    [
      "u",
      "l"
    ],
    [
      "u",
      "c"
    ],
    [
      "u",
      "b"
    ],
    [
      "u",
      "e"
    ],
    [
      "u",
      "d"
    ],
    [
      "Ġj",
      "u"
    ],
    [
      "u",
      "r"
    ],
    [
      "u",
      "s"
    ],
    [
      "u",
      "n"
    ],
    [
      "u",
      "l"
    ],
    [
      "u",
      "d"
    ],
    [
      "Ġint",
      "o"
    ],
    [
      "R",
      "E"
    ],
    [
      "Ġs",
      "y"
    ],
    [
      "y",
      "s"
    ],
    [
      "Ġ",
      "7"
    ],
    [
      "ĠPan",
      "e"
    ],
    [
      "e",
      "l"
    ],
    [
      "ĠG",
      "D"
    ],
    [
      "Ġv",
      "ia"
    ],
    [
      "Ġonl",
      "in"
    ],
    [
      "in",
      "e"
    ],
    [
      "Ġva",
      "r"
    ],
    [
      "r",
      "a"
    ],
    [
      "r",
      "y"
    ],
    [
      "r",
      "i"
    ],
    [
      "r",
      "r"
    ],
    [
      "r",
      "n"
    ],
    [
      "r",
      "u"
    ],
    [
      "Ġg",
      "roup"
    ],
    [
      "i",
      "o"
    ],
    [
      "Ġw",
      "ay"
    ],
    [
      "it",
      "s"
    ],
    [
      "s",
      "."
    ],
    [
      "s",
      ","
    ],
    [
      "s",
      "u"
    ],
    [
      "Ġd",
      "is"
    ],
    [
      "ĠUs",
      "er"
    ],
    [
      "ĠContro",
      "l"
    ],
    [
      "l",
      "s"
    ],
    [
      "ĠPane",
      "l"
    ],
    [
      "l",
      "s"
    ],
    [
      "eat",
      "u"
    ],
    [
      "u",
      "r"
    ],
    [
      "O",
      "u"
    ],
    [
      "u",
      "r"
    ],
    [
      "u",
      "n"
    ],
    [
      "u",
      "t"
    ],
    [
      "u",
      "a"
    ],
    [
      "Ġ",
      "u"
    ],
    [
      "Ġt",
      "eam"
    ],
    [
      "C",
      "a"
    ],
    [
      "rc",
      "h"
    ],
    [
      "h",
      "a"
    ],
    [
      "t",
      "or"
    ],
    [
      "Ġfr",
      "e"
    ],
    [
      "e",
      "e"
    ],
    [
      "b",
      "er"
    ],
    [
      "p",
      "ort"
    ],
    [
      "m",
      "p"
    ],
    [
      "b",
      "ox"
    ],
    [
      "u",
      "b"
    ],
    [
      "c",
      "es"
    ],
    [
      "S",
      "h"
    ],
    [
      "Ġop",
      "t"
    ],
    [
      "t",
      "h"
    ],
    [
      "t",
      "a"
    ],
    [
      "t",
      "ion"
    ],
    [
      "t",
      "ed"
    ],
    [
      "t",
      "ing"
    ],
    [
      "t",
      "ic"
    ],
    [
      "t",
      "i"
    ],
    [
      "l",
      "v"
    ],
    [
      "a",
      "l"
    ],
    [
      "e",
      "l"
    ],
    [
      "i",
      "l"
    ],
    [
      "o",
      "l"
    ],
    [
      "u",
      "l"
    ],
    [
      "v",
      "e"
    ],
    [
      "v",
      "a"
    ],
    [
      "erstan",
      "d"
    ],
    [
      "d",
      "a"
    ],
    [
      "d",
      "s"
    ],
    [
      "d",
      "ing"
    ],
    [
      "Ġap",
      "p"
    ],
    [
      "p",
      "l"
    ],
    [
      "p",
      "a"
    ],
    [
      "p",
      "r"
    ],
    [
      "od",
      "e"
    ],
    [
      "e",
      "l"
    ],
    [
      "e",
      "b"
    ],
    [
      "e",
      ","
    ],
    [
      "Ġca",
      "s"
    ],
    [
      "s",
      "t"
    ],
    [
      "s",
      "e"
    ],
    [
      "s",
      "s"
    ],
    [
      "s",
      "u"
    ],
    [
      "s",
      "o"
    ],
    [
      "s",
      "h"
    ],
    [
      "Ġima",
      "g"
    ],
    [
      "g",
      "e"
    ],
    [
      "i",
      "o"
    ],
    [
      "ĠW",
      "a"
    ],
    [
      "a",
      "n"
    ],
    [
      "a",
      "t"
    ],
    [
      "a",
      "r"
    ],
    [
      "a",
      "l"
    ],
    [
      "a",
      "c"
    ],
    [
      "a",
      "s"
    ],
    [
      "a",
      "g"
    ],
    [
      "a",
      "d"
    ],
    [
      "a",
      "b"
    ],
    [
      "a",
      "i"
    ],
    [
      "a",
      "ll"
    ],
    [
      "a",
      "v"
    ],
    [
      "a",
      "k"
    ],
    [
      "a",
      "u"
    ],
    [
      "r",
      "e."
    ],
    [
      "a",
      "r"
    ],
    [
      "u",
      "r"
    ],
    [
      "t",
      "r"
    ],
    [
      "-",
      "2"
    ],
    [
      "Ġprod",
      "uct"
    ],
    [
      "S",
      "t"
    ],
    [
      ")",
      ","
    ],
    [
      "ĠGD",
      "PR"
    ],
    [
      "id",
      "e"
    ],
    [
      "ers",
      "."
    ],
    [
      ".",
      "."
    ],
    [
      "f",
      "o"
    ],
    [
      "f",
      "o"
    ],
    [
      "im",
      "ited"
    ],
    [
      "l",
      "w"
    ],
    [
      "a",
      "l"
    ],
    [
      "e",
      "l"
    ],
    [
      "i",
      "l"
    ],
    [
      "o",
      "l"
    ],
    [
      "u",
      "l"
    ],
    [
      "Ġa",
      "l"
    ],
    [
      "w",
      "a"
    ],
    [
      "Ġp",
      "oll"
    ],
    [
      "Ġ",
      "0"
    ],
    [
      "is",
      "a"
    ],
    [
      "a",
      "n"
    ],
    [
      "a",
      "t"
    ],
    [
      "a",
      "r"
    ],
    [
      "a",
      "l"
    ],
    [
      "a",
      "s"
    ],
    [
      "a",
      "g"
    ],
    [
      "a",
      "d"
    ],
    [
      "a",
      "b"
    ],
    [
      "a",
      "ll"
    ],
    [
      "a",
      "p"
    ],
    [
      "a",
      "v"
    ],
    [
      "a",
      "tion"
    ],
    [
      "h",
      "is"
    ],
    [
      "orma",
      "n"
    ],
    [
      "n",
      "c"
    ],
    [
      "n",
      "s"
    ],
    [
      "en",
      "g"
    ],
    [
      "g",
      "e"
    ],
    [
      "Ġ",
      "en"
    ],
    [
      "g",
      "a"
    ],
    [
      "g",
      "h"
    ],
    [
      "g",
      "r"
    ],
    [
      "c",
      "ess"
    ],
    [
      "e",
      "c"
    ],
    [
      "Ġth",
      "ese"
    ],
    [
      "orman",
      "c"
    ],
    [
      "c",
      "e"
    ],
    [
      "c",
      "es"
    ],
    [
      "ic",
      "l"
    ],
    [
      "l",
      "y"
    ],
    [
      "l",
      "e"
    ],
    [
      "l",
      "es"
    ],
    [
      "t",
      "ic"
    ],
    [
      "l",
      "ic"
    ],
    [
      "Ġbeaut",
      "y"
    ],
    [
      "y",
      ","
    ],
    [
      "y",
      "."
    ],
    [
      "c",
      "u"
    ],
    [
      "ĠD",
      "e"
    ],
    [
      "e",
      "l"
    ],
    [
      "e",
      "e"
    ],
    [
      "e",
      "a"
    ],
    [
      "e",
      "b"
    ],
    [
      "e",
      "m"
    ],
    [
      "Ġau",
      "t"
    ],
    [
      "t",
      "h"
    ],
    [
      "t",
      "e"
    ],
    [
      "t",
      "u"
    ],
    [
      "t",
      "r"
    ],
    [
      "t",
      "o"
    ],
    [
      "t",
      "or"
    ],
    [
      "ir",
      "e"
    ],
    [
      "e",
      "l"
    ],
    [
      "g",
      "u"
    ],
    [
      "Ġan",
      "a"
    ],
    [
      "a",
      "r"
    ],
    [
      "a",
      "l"
    ],
    [
      "e",
      "ll"
    ],
    [
      "Ġb",
      "een"
    ],
    [
      "Ġdes",
      "ign"
    ],
    [
      "ent",
      "ial"
    ],
    [
      "ĠD",
      "ec"
    ],
    [
      "Ġs",
      "im"
    ],
    [
      "Ġpr",
      "ev"
    ],
    [
      "let",
      "e"
    ],
    [
      "e",
      "l"
    ],
    [
      "Ġsh",
      "ipping"
    ],
    [
      "Ġn",
      "o"
    ],
    [
      "ĠA",
      "ug"
    ],
    [
      "Ġl",
      "oca"
    ],
    [
      "Ġta",
      "k"
    ],
    [
      "k",
      "e"
    ],
    [
      "Ġd",
      "ep"
    ],
    [
      "-",
      "-"
    ],
    [
      "eas",
      "on"
    ],
    [
      "on",
      "s"
    ],
    [
      "l",
      "og"
    ],
    [
      "a",
      "l"
    ],
    [
      "i",
      "l"
    ],
    [
      "o",
      "l"
    ],
    [
      "b",
      "l"
    ],
    [
      "ĠH",
      "a"
    ],
    [
      "a",
      "n"
    ],
    [
      "a",
      "t"
    ],
    [
      "a",
      "r"
    ],
    [
      "a",
      "c"
    ],
    [
      "a",
      "l"
    ],
    [
      "a",
      "s"
    ],
    [
      "a",
      "m"
    ],
    [
      "a",
      "g"
    ],
    [
      "a",
      "d"
    ],
    [
      "a",
      "b"
    ],
    [
      "a",
      "i"
    ],
    [
      "a",
      "ll"
    ],
    [
      "a",
      "p"
    ],
    [
      "a",
      "v"
    ],
    [
      "a",
      "u"
    ],
    [
      "Ġ",
      "et"
    ],
    [
      "Ġther",
      "e"
    ],
    [
      "e",
      "b"
    ],
    [
      "e",
      ","
    ],
    [
      "ĠO",
      "c"
    ],
    [
      "c",
      "h"
    ],
    [
      "c",
      "t"
    ],
    [
      "c",
      "e"
    ],
    [
      "c",
      "a"
    ],
    [
      "c",
      "u"
    ],
    [
      "b",
      "e"
    ],
    [
      "e",
      "l"
    ],
    [
      "a",
      "b"
    ],
    [
      "e",
      "ll"
    ],
    [
      "r",
      "ic"
    ],
    [
      "a",
      "r"
    ],
    [
      "ou",
      "r"
    ],
    [
      "t",
      "r"
    ],
    [
      "p",
      "r"
    ],
    [
      "r",
      "r"
    ],
    [
      "P",
      "r"
    ],
    [
      "ic",
      "e"
    ],
    [
      "g",
      "r"
    ],
    [
      "b",
      "r"
    ],
    [
      "ĠO",
      "n"
    ],
    [
      "n",
      "t"
    ],
    [
      "n",
      "c"
    ],
    [
      "n",
      "g"
    ],
    [
      "n",
      "s"
    ],
    [
      "n",
      "e"
    ],
    [
      "l",
      "ect"
    ],
    [
      "e",
      "l"
    ],
    [
      "o",
      "l"
    ],
    [
      "a",
      "ble"
    ],
    [
      "r",
      "a"
    ],
    [
      "l",
      "a"
    ],
    [
      "t",
      "a"
    ],
    [
      "h",
      "a"
    ],
    [
      "m",
      "a"
    ],
    [
      "n",
      "a"
    ],
    [
      "u",
      "a"
    ],
    [
      "d",
      "a"
    ],
    [
      "p",
      "a"
    ],
    [
      "b",
      "a"
    ],
    [
      "e",
      "a"
    ],
    [
      "c",
      "a"
    ],
    [
      "og",
      "r"
    ],
    [
      "r",
      "a"
    ],
    [
      "r",
      "es"
    ],
    [
      "ent",
      "a"
    ],
    [
      "a",
      "n"
    ],
    [
      "a",
      "t"
    ],
    [
      "a",
      "r"
    ],
    [
      "a",
      "c"
    ],
    [
      "a",
      "l"
    ],
    [
      "a",
      "m"
    ],
    [
      "a",
      "g"
    ],
    [
      "m",
      "ent"
    ],
    [
      "a",
      "b"
    ],
    [
      "a",
      "i"
    ],
    [
      "a",
      "ll"
    ],
    [
      "a",
      "tion"
    ],
    [
      "a",
      "u"
    ],
    [
      "em",
      "ent"
    ],
    [
      "Ġf",
      "ollow"
    ],
    [
      "Ġwh",
      "er"
    ],
    [
      "er",
      "e"
    ],
    [
      "d",
      "u"
    ],
    [
      "n",
      "d"
    ],
    [
      "u",
      "s"
    ],
    [
      "u",
      "n"
    ],
    [
      "a",
      "d"
    ],
    [
      "o",
      "d"
    ],
    [
      "u",
      "c"
    ],
    [
      "w",
      "w"
    ],
    [
      "p",
      "p"
    ],
    [
      "s",
      "ions"
    ],
    [
      "a",
      "s"
    ],
    [
      "u",
      "s"
    ],
    [
      "l",
      "s"
    ],
    [
      "s",
      "s"
    ],
    [
      "ĠOu",
      "r"
    ],
    [
      "r",
      "s"
    ],
    [
      "Ġh",
      "el"
    ],
    [
      "s",
      "sw"
    ],
    [
      "a",
      "s"
    ],
    [
      "Ġf",
      "l"
    ],
    [
      "l",
      "y"
    ],
    [
      "l",
      "e"
    ],
    [
      "l",
      "a"
    ],
    [
      "l",
      "u"
    ],
    [
      "l",
      "es"
    ],
    [
      "l",
      "o"
    ],
    [
      "l",
      "ed"
    ],
    [
      "O",
      "R"
    ],
    [
      "enc",
      "es"
    ],
    [
      "es",
      ","
    ],
    [
      "es",
      "."
    ],
    [
      "Ġ",
      "8"
    ],
    [
      "Ġlin",
      "k"
    ],
    [
      "Ġab",
      "ou"
    ],
    [
      "ou",
      "t"
    ],
    [
      "g",
      "roup"
    ],
    [
      ".",
      "com"
    ],
    [
      "s",
      "."
    ],
    [
      "y",
      "."
    ],
    [
      "es",
      "."
    ],
    [
      "t",
      "."
    ],
    [
      "Ġabou",
      "t"
    ],
    [
      "t",
      "."
    ],
    [
      "t",
      ","
    ],
    [
      "ĠA",
      "p"
    ],
    [
      "p",
      "l"
    ],
    [
      "p",
      "a"
    ],
    [
      "p",
      "r"
    ],
    [
      "p",
      "h"
    ],
    [
      "ers",
      ","
    ],
    [
      "Ġc",
      "ou"
    ],
    [
      "ou",
      "r"
    ],
    [
      "ou",
      "t"
    ],
    [
      "bl",
      "e"
    ],
    [
      "l",
      "oad"
    ],
    [
      "e",
      "l"
    ],
    [
      "p",
      "l"
    ],
    [
      "Ġ201",
      "3"
    ],
    [
      "Ġagre",
      "e"
    ],
    [
      "e",
      ","
    ],
    [
      "ĠU",
      "S"
    ],
    [
      "S",
      "h"
    ],
    [
      "ivat",
      "e"
    ],
    [
      "e",
      "l"
    ],
    [
      "i",
      "b"
    ],
    [
      "Ġfa",
      "c"
    ],
    [
      "c",
      "t"
    ],
    [
      "c",
      "e"
    ],
    [
      "c",
      "a"
    ],
    [
      "c",
      "es"
    ],
    [
      "c",
      "u"
    ],
    [
      "ormanc",
      "e"
    ],
    [
      "e",
      ","
    ],
    [
      "ĠMa",
      "r"
    ],
    [
      "r",
      "e"
    ],
    [
      "r",
      "a"
    ],
    [
      "r",
      "t"
    ],
    [
      "r",
      "y"
    ],
    [
      "r",
      "s"
    ],
    [
      "r",
      "es"
    ],
    [
      "r",
      "i"
    ],
    [
      "r",
      "r"
    ],
    [
      "r",
      "o"
    ],
    [
      "r",
      "c"
    ],
    [
      "r",
      "g"
    ],
    [
      "r",
      "u"
    ],
    [
      "r",
      "k"
    ],
    [
      "er",
      ","
    ],
    [
      "Ġimp",
      "r"
    ],
    [
      "r",
      "a"
    ],
    [
      "r",
      "o"
    ],
    [
      "Ġd",
      "ef"
    ],
    [
      "ev",
      "iew"
    ],
    [
      "Ġwh",
      "i"
    ],
    [
      "i",
      "l"
    ],
    [
      "i",
      "p"
    ],
    [
      "ia",
      "l"
    ],
    [
      "Ġl",
      "ow"
    ],
    [
      "ed",
      "."
    ],
    [
      "e",
      "c"
    ],
    [
      "e",
      "en"
    ],
    [
      "s",
      "ed"
    ],
    [
      "a",
      "s"
    ],
    [
      "u",
      "s"
    ],
    [
      "s",
      "s"
    ],
    [
      "r",
      "s"
    ],
    [
      "n",
      "s"
    ],
    [
      "Ġm",
      "ore"
    ],
    [
      "pp",
      "ort"
    ],
    [
      "t",
      "eg"
    ],
    [
      "a",
      "t"
    ],
    [
      "n",
      "t"
    ],
    [
      "r",
      "t"
    ],
    [
      "in",
      "t"
    ],
    [
      "S",
      "t"
    ],
    [
      "Ġchang",
      "e"
    ],
    [
      "e",
      ","
    ],
    [
      "Ġd",
      "on"
    ],
    [
      "on",
      "e"
    ],
    [
      "on",
      "s"
    ],
    [
      "on",
      "t"
    ],
    [
      "Ġsit",
      "e"
    ],
    [
      "e",
      "l"
    ],
    [
      "e",
      ","
    ],
    [
      "ef",
      "or"
    ],
    [
      "or",
      "t"
    ],
    [
      "or",
      "d"
    ],
    [
      "or",
      "m"
    ],
    [
      "or",
      "e"
    ],
    [
      "Ġonlin",
      "e"
    ],
    [
      "e",
      "b"
    ],
    [
      "e",
      ","
    ],
    [
      "Ġd",
      "ir"
    ],
    [
      "ĠF",
      "a"
    ],
    [
      "a",
      "n"
    ],
    [
      "a",
      "t"
    ],
    [
      "a",
      "r"
    ],
    [
      "a",
      "c"
    ],
    [
      "a",
      "l"
    ],
    [
      "a",
      "s"
    ],
    [
      "a",
      "m"
    ],
    [
      "a",
      "g"
    ],
    [
      "a",
      "d"
    ],
    [
      "a",
      "b"
    ],
    [
      "a",
      "i"
    ],
    [
      "a",
      "ll"
    ],
    [
      "a",
      "v"
    ],
    [
      "a",
      "k"
    ],
    [
      "a",
      "u"
    ],
    [
      "t",
      "ions"
    ],
    [
      "ĠG",
      "r"
    ],
    [
      "r",
      "e"
    ],
    [
      "r",
      "a"
    ],
    [
      "r",
      "i"
    ],
    [
      "r",
      "r"
    ],
    [
      "r",
      "o"
    ],
    [
      "r",
      "u"
    ],
    [
      "Ġ(",
      "3"
    ],
    [
      "Ġinc",
      "l"
    ],
    [
      "l",
      "u"
    ],
    [
      "l",
      "in"
    ],
    [
      "Ġphp",
      "B"
    ],
    [
      "ĠphpB",
      "B"
    ],
    [
      "Ġwher",
      "e"
    ],
    [
      "e",
      "b"
    ],
    [
      "C",
      "l"
    ],
    [
      "l",
      "e"
    ],
    [
      "l",
      "a"
    ],
    [
      "l",
      "u"
    ],
    [
      "l",
      "o"
    ],
    [
      "l",
      "in"
    ],
    [
      "l",
      "i"
    ],
    [
      "l",
      "ic"
    ],
    [
      "f",
      "a"
    ],
    [
      "e",
      "lf"
    ],
    [
      "c",
      "e"
    ],
    [
      "s",
      "e"
    ],
    [
      "h",
      "e"
    ],
    [
      "Ġ",
      "e"
    ],
    [
      "d",
      "e"
    ],
    [
      "Ġs",
      "e"
    ],
    [
      "Ġw",
      "e"
    ],
    [
      "Ġf",
      "eatu"
    ],
    [
      "ĠCons",
      "ent"
    ],
    [
      "in",
      "f"
    ],
    [
      "ĠS",
      "c"
    ],
    [
      "c",
      "h"
    ],
    [
      "c",
      "e"
    ],
    [
      "c",
      "a"
    ],
    [
      "c",
      "r"
    ],
    [
      "c",
      "u"
    ],
    [
      "Ġl",
      "ook"
    ],
    [
      "h",
      "i"
    ],
    [
      "u",
      "g"
    ],
    [
      "y",
      "t"
    ],
    [
      "l",
      "y"
    ],
    [
      "t",
      "a"
    ],
    [
      "t",
      "h"
    ],
    [
      "t",
      "e"
    ],
    [
      "t",
      "er"
    ],
    [
      "r",
      "y"
    ],
    [
      "n",
      "y"
    ],
    [
      "t",
      "y"
    ],
    [
      "t",
      "o"
    ],
    [
      "t",
      "."
    ],
    [
      "h",
      "y"
    ],
    [
      "t",
      "ic"
    ],
    [
      "Ġ1",
      "9"
    ],
    [
      "Ġm",
      "e"
    ],
    [
      "Ġw",
      "r"
    ],
    [
      "r",
      "a"
    ],
    [
      "r",
      "o"
    ],
    [
      "r",
      "ing"
    ],
    [
      "lw",
      "ays"
    ],
    [
      "Ġd",
      "ec"
    ],
    [
      "eth",
      "er"
    ],
    [
      "E",
      "N"
    ],
    [
      "Ġpr",
      "op"
    ],
    [
      "F",
      "u"
    ],
    [
      "u",
      "r"
    ],
    [
      "u",
      "n"
    ],
    [
      "u",
      "t"
    ],
    [
      "u",
      "c"
    ],
    [
      "Ġf",
      "e"
    ],
    [
      "A",
      "L"
    ],
    [
      "Ġt",
      "w"
    ],
    [
      "k",
      "ing"
    ],
    [
      "ĠM",
      "ar"
    ],
    [
      "Ġperm",
      "is"
    ],
    [
      "Ġm",
      "emb"
    ],
    [
      "ic",
      "es"
    ],
    [
      "es",
      ","
    ],
    [
      "es",
      "."
    ],
    [
      "t",
      "ic"
    ],
    [
      "l",
      "ic"
    ],
    [
      "ec",
      "tion"
    ],
    [
      "Ġb",
      "est"
    ],
    [
      "s",
      "a"
    ],
    [
      "a",
      "n"
    ],
    [
      "a",
      "t"
    ],
    [
      "a",
      "c"
    ],
    [
      "a",
      "l"
    ],
    [
      "a",
      "s"
    ],
    [
      "u",
      "s"
    ],
    [
      "a",
      "m"
    ],
    [
      "a",
      "g"
    ],
    [
      "t",
      "s"
    ],
    [
      "a",
      "b"
    ],
    [
      "s",
      "s"
    ],
    [
      "r",
      "s"
    ],
    [
      "n",
      "s"
    ],
    [
      "a",
      "p"
    ],
    [
      "a",
      "v"
    ],
    [
      "a",
      "u"
    ],
    [
      "Ġ",
      "ident"
    ],
    [
      "y",
      "l"
    ],
    [
      "l",
      "e"
    ],
    [
      "l",
      "a"
    ],
    [
      "r",
      "y"
    ],
    [
      "l",
      "s"
    ],
    [
      "n",
      "y"
    ],
    [
      "t",
      "y"
    ],
    [
      "l",
      "es"
    ],
    [
      "l",
      "u"
    ],
    [
      "l",
      "in"
    ],
    [
      "l",
      "i"
    ],
    [
      "h",
      "y"
    ],
    [
      "l",
      "ic"
    ],
    [
      "Ġp",
      "e"
    ],
    [
      "e",
      "e"
    ],
    [
      "e",
      "a"
    ],
    [
      "e",
      "b"
    ],
    [
      "Ġbrows",
      "er"
    ],
    [
      "er",
      ","
    ],
    [
      "Ġdif",
      "f"
    ],
    [
      "f",
      "u"
    ],
    [
      "ua",
      "r"
    ],
    [
      "r",
      "e"
    ],
    [
      "r",
      "a"
    ],
    [
      "r",
      "t"
    ],
    [
      "r",
      "d"
    ],
    [
      "r",
      "y"
    ],
    [
      "r",
      "i"
    ],
    [
      "r",
      "r"
    ],
    [
      "r",
      "o"
    ],
    [
      "ĠOc",
      "t"
    ],
    [
      "t",
      "a"
    ],
    [
      "t",
      "r"
    ],
    [
      "t",
      "y"
    ],
    [
      "t",
      "o"
    ],
    [
      "ot",
      "h"
    ],
    [
      "Ġcateg",
      "ory"
    ],
    [
      "Ġra",
      "n"
    ],
    [
      "n",
      "d"
    ],
    [
      "n",
      "t"
    ],
    [
      "n",
      "c"
    ],
    [
      "n",
      "g"
    ],
    [
      "n",
      "s"
    ],
    [
      "ecu",
      "rity"
    ],
    [
      "Ġinforma",
      "tion"
    ],
    [
      "Ġ",
      "Â"
    ],
    [
      "Ġcomp",
      "l"
    ],
    [
      "l",
      "e"
    ],
    [
      "l",
      "y"
    ],
    [
      "l",
      "a"
    ],
    [
      "l",
      "i"
    ],
    [
      "l",
      "ic"
    ],
    [
      "at",
      "e"
    ],
    [
      "Ġpur",
      "c"
    ],
    [
      "c",
      "h"
    ],
    [
      "ĠR",
      "es"
    ],
    [
      "es",
      "t"
    ],
    [
      "Ġpurc",
      "h"
    ],
    [
      "h",
      "a"
    ],
    [
      "Ġmeth",
      "od"
    ],
    [
      "er",
      "r"
    ],
    [
      "r",
      "e"
    ],
    [
      "r",
      "a"
    ],
    [
      "t",
      "er"
    ],
    [
      "h",
      "er"
    ],
    [
      "r",
      "y"
    ],
    [
      "r",
      "s"
    ],
    [
      "r",
      "es"
    ],
    [
      "r",
      "i"
    ],
    [
      "r",
      "r"
    ],
    [
      "r",
      "o"
    ],
    [
      "r",
      "ed"
    ],
    [
      "r",
      "ing"
    ],
    [
      "d",
      "er"
    ],
    [
      "r",
      "u"
    ],
    [
      "Ġp",
      "er"
    ],
    [
      "b",
      "er"
    ],
    [
      "l",
      "icy"
    ],
    [
      "o",
      "l"
    ],
    [
      "Ġdeliv",
      "ery"
    ],
    [
      "p",
      "s"
    ],
    [
      "C",
      "on"
    ],
    [
      "et",
      "r"
    ],
    [
      "r",
      "e"
    ],
    [
      "r",
      "a"
    ],
    [
      "r",
      "y"
    ],
    [
      "r",
      "es"
    ],
    [
      "r",
      "i"
    ],
    [
      "r",
      "o"
    ],
    [
      "r",
      "u"
    ],
    [
      "Ġ201",
      "2"
    ],
    [
      "c",
      "l"
    ],
    [
      "l",
      "e"
    ],
    [
      "l",
      "a"
    ],
    [
      "l",
      "es"
    ],
    [
      "l",
      "ed"
    ],
    [
      "l",
      "in"
    ],
    [
      "e",
      "c"
    ],
    [
      "S",
      "T"
    ],
    [
      "Ġcon",
      "f"
    ],
    [
      "f",
      "or"
    ],
    [
      "f",
      "u"
    ],
    [
      "o",
      ","
    ],
    [
      "Ġt",
      "o"
    ],
    [
      "Ġd",
      "o"
    ],
    [
      "Ġ",
      "o"
    ],
    [
      "Ġs",
      "o"
    ],
    [
      "Ġpr",
      "o"
    ],
    [
      "s",
      "o"
    ],
    [
      "l",
      "o"
    ],
    [
      "h",
      "o"
    ],
    [
      "o",
      "o"
    ],
    [
      "t",
      "o"
    ],
    [
      "r",
      "o"
    ],
    [
      "f",
      "o"
    ],
    [
      "Ġn",
      "o"
    ],
    [
      "i",
      "o"
    ],
    [
      "o",
      "s"
    ],
    [
      "ig",
      "a"
    ],
    [
      "a",
      "n"
    ],
    [
      "a",
      "t"
    ],
    [
      "a",
      "r"
    ],
    [
      "a",
      "c"
    ],
    [
      "a",
      "l"
    ],
    [
      "a",
      "s"
    ],
    [
      "a",
      "m"
    ],
    [
      "a",
      "d"
    ],
    [
      "a",
      "b"
    ],
    [
      "a",
      "i"
    ],
    [
      "a",
      "p"
    ],
    [
      "a",
      "tion"
    ],
    [
      "k",
      "ed"
    ],
    [
      "c",
      "k"
    ],
    [
      "a",
      "k"
    ],
    [
      "or",
      "k"
    ],
    [
      "r",
      "k"
    ],
    [
      "Ġt",
      "erms"
    ],
    [
      "Q",
      "u"
    ],
    [
      "u",
      "r"
    ],
    [
      "u",
      "a"
    ],
    [
      "u",
      "b"
    ],
    [
      "u",
      "e"
    ],
    [
      "Ġd",
      "ay"
    ],
    [
      "if",
      "ied"
    ],
    [
      "m",
      "s"
    ],
    [
      "Ġsh",
      "ip"
    ],
    [
      "i",
      "end"
    ],
    [
      "r",
      "i"
    ],
    [
      "Ġf",
      "i"
    ],
    [
      "ens",
      "u"
    ],
    [
      "u",
      "r"
    ],
    [
      "u",
      "s"
    ],
    [
      "u",
      "a"
    ],
    [
      "m",
      "m"
    ],
    [
      "m",
      "a"
    ],
    [
      "a",
      "m"
    ],
    [
      "m",
      "ent"
    ],
    [
      "m",
      "e"
    ],
    [
      "o",
      "m"
    ],
    [
      "e",
      "k"
    ],
    [
      "Ġth",
      "e"
    ],
    [
      "l",
      "e"
    ],
    [
      "r",
      "e"
    ],
    [
      "Ġb",
      "e"
    ],
    [
      "t",
      "e"
    ],
    [
      "c",
      "e"
    ],
    [
      "e",
      "e"
    ],
    [
      "s",
      "e"
    ],
    [
      "i",
      "e"
    ],
    [
      "h",
      "e"
    ],
    [
      "Ġr",
      "e"
    ],
    [
      "er",
      "e"
    ],
    [
      "Ġ",
      "e"
    ],
    [
      "d",
      "e"
    ],
    [
      "n",
      "e"
    ],
    [
      "k",
      "e"
    ],
    [
      "k",
      "ing"
    ],
    [
      "Ġund",
      "erstand"
    ],
    [
      "Ġadministrator",
      "."
    ],
    [
      "Ġpurch",
      "a"
    ],
    [
      "a",
      "s"
    ],
    [
      "C",
      "h"
    ],
    [
      "h",
      "a"
    ],
    [
      "h",
      "e"
    ],
    [
      "h",
      "o"
    ],
    [
      "h",
      "i"
    ],
    [
      "ĠN",
      "ew"
    ],
    [
      "Ġtra",
      "c"
    ],
    [
      "c",
      "t"
    ],
    [
      "c",
      "h"
    ],
    [
      "c",
      "e"
    ],
    [
      "c",
      "k"
    ],
    [
      "c",
      "es"
    ],
    [
      "Ġs",
      "a"
    ],
    [
      "Ġex",
      "t"
    ],
    [
      "t",
      "a"
    ],
    [
      "t",
      "er"
    ],
    [
      "t",
      "r"
    ],
    [
      "Ġpurcha",
      "s"
    ],
    [
      "s",
      "e"
    ],
    [
      "Ġdat",
      "a"
    ],
    [
      "a",
      "s"
    ],
    [
      "a",
      "b"
    ],
    [
      "r",
      "."
    ],
    [
      "a",
      "r"
    ],
    [
      "u",
      "r"
    ],
    [
      "ou",
      "r"
    ],
    [
      "-c",
      "h"
    ],
    [
      "h",
      "a"
    ],
    [
      "h",
      "e"
    ],
    [
      "h",
      "o"
    ],
    [
      "h",
      "i"
    ],
    [
      "l",
      "ay"
    ],
    [
      "a",
      "l"
    ],
    [
      "e",
      "l"
    ],
    [
      "o",
      "l"
    ],
    [
      "p",
      "l"
    ],
    [
      "Ġ",
      "ess"
    ],
    [
      "d",
      "."
    ],
    [
      "ĠF",
      "e"
    ],
    [
      "e",
      "l"
    ],
    [
      "e",
      "e"
    ],
    [
      "e",
      "a"
    ],
    [
      "e",
      "b"
    ],
    [
      "e",
      "ll"
    ],
    [
      "Ġ",
      "9"
    ],
    [
      "p",
      "p"
    ],
    [
      "s",
      "i"
    ],
    [
      "on",
      "s"
    ],
    [
      "ica",
      "lly"
    ],
    [
      "d",
      "ed"
    ],
    [
      "n",
      "d"
    ],
    [
      "a",
      "d"
    ],
    [
      "r",
      "d"
    ],
    [
      "or",
      "d"
    ],
    [
      "in",
      "d"
    ],
    [
      "u",
      "d"
    ],
    [
      "ed",
      "."
    ],
    [
      "Ġm",
      "in"
    ],
    [
      "in",
      "e"
    ],
    [
      "in",
      "t"
    ],
    [
      "in",
      "d"
    ],
    [
      "i",
      "er"
    ],
    [
      "er",
      "e"
    ],
    [
      "r",
      "i"
    ],
    [
      "l",
      "i"
    ],
    [
      "t",
      "i"
    ],
    [
      "er",
      ","
    ],
    [
      "h",
      "i"
    ],
    [
      "a",
      "rket"
    ],
    [
      "Ġm",
      "a"
    ],
    [
      "m",
      "a"
    ],
    [
      "M",
      "a"
    ],
    [
      "Ġsy",
      "s"
    ],
    [
      "s",
      "t"
    ],
    [
      "et",
      "s"
    ],
    [
      "s",
      "."
    ],
    [
      "s",
      ","
    ],
    [
      "s",
      "e"
    ],
    [
      "s",
      "s"
    ],
    [
      "s",
      "h"
    ],
    [
      "b",
      "m"
    ],
    [
      "m",
      "a"
    ],
    [
      "u",
      "b"
    ],
    [
      "e",
      "b"
    ],
    [
      "s",
      "a"
    ],
    [
      "p",
      "er"
    ],
    [
      "Ġv",
      "iew"
    ],
    [
      "g",
      "l"
    ],
    [
      "l",
      "e"
    ],
    [
      "l",
      "y"
    ],
    [
      "l",
      "a"
    ],
    [
      "a",
      "g"
    ],
    [
      "n",
      "g"
    ],
    [
      "l",
      "es"
    ],
    [
      "l",
      "ed"
    ],
    [
      "l",
      "in"
    ],
    [
      "r",
      "g"
    ],
    [
      "o",
      "g"
    ],
    [
      "u",
      "g"
    ],
    [
      "Ġtop",
      "ics"
    ],
    [
      "Ġsta",
      "t"
    ],
    [
      "t",
      "e"
    ],
    [
      "t",
      "ion"
    ],
    [
      "t",
      "er"
    ],
    [
      "t",
      "s"
    ],
    [
      "t",
      "ed"
    ],
    [
      "t",
      "u"
    ],
    [
      "t",
      "ing"
    ],
    [
      "t",
      "es"
    ],
    [
      "t",
      "o"
    ],
    [
      "t",
      "ic"
    ],
    [
      "t",
      "l"
    ],
    [
      "N",
      "ecessary"
    ],
    [
      "\"",
      "."
    ],
    [
      "ĠL",
      "a"
    ],
    [
      "a",
      "n"
    ],
    [
      "a",
      "t"
    ],
    [
      "a",
      "r"
    ],
    [
      "a",
      "c"
    ],
    [
      "a",
      "l"
    ],
    [
      "a",
      "s"
    ],
    [
      "a",
      "m"
    ],
    [
      "a",
      "g"
    ],
    [
      "a",
      "d"
    ],
    [
      "a",
      "b"
    ],
    [
      "a",
      "i"
    ],
    [
      "a",
      "p"
    ],
    [
      "a",
      "v"
    ],
    [
      "a",
      "k"
    ],
    [
      "a",
      "u"
    ],
    [
      "ĠIn",
      "t"
    ],
    [
      "t",
      "a"
    ],
    [
      "t",
      "e"
    ],
    [
      "t",
      "er"
    ],
    [
      "t",
      "u"
    ],
    [
      "t",
      "r"
    ],
    [
      "t",
      "o"
    ],
    [
      "Ġs",
      "ubscr"
    ],
    [
      "p",
      "u"
    ],
    [
      "u",
      "r"
    ],
    [
      "o",
      "p"
    ],
    [
      "u",
      "s"
    ],
    [
      "u",
      "n"
    ],
    [
      "u",
      "t"
    ],
    [
      "u",
      "l"
    ],
    [
      "m",
      "p"
    ],
    [
      "i",
      "p"
    ],
    [
      "u",
      "b"
    ],
    [
      "Ġavaila",
      "b"
    ],
    [
      "b",
      "l"
    ],
    [
      "Ġcookies",
      "."
    ],
    [
      "s",
      "i"
    ],
    [
      "p",
      "on"
    ],
    [
      "Ġkn",
      "ow"
    ],
    [
      "ĠF",
      "eb"
    ],
    [
      "Ġg",
      "iv"
    ],
    [
      "iv",
      "e"
    ],
    [
      "Ġ",
      "each"
    ],
    [
      "iv",
      "id"
    ],
    [
      "id",
      "e"
    ],
    [
      "on",
      "d"
    ],
    [
      "Ġha",
      "n"
    ],
    [
      "n",
      "d"
    ],
    [
      "n",
      "g"
    ],
    [
      "n",
      "y"
    ],
    [
      "n",
      "s"
    ],
    [
      "A",
      "T"
    ],
    [
      "T",
      "h"
    ],
    [
      "Ġ",
      "ensu"
    ],
    [
      "Ġw",
      "ould"
    ],
    [
      "w",
      "s"
    ],
    [
      "s",
      "t"
    ],
    [
      "s",
      "."
    ],
    [
      "s",
      ","
    ],
    [
      "s",
      "e"
    ],
    [
      "o",
      "w"
    ],
    [
      "Ġpla",
      "c"
    ],
    [
      "c",
      "e"
    ],
    [
      "c",
      "a"
    ],
    [
      "c",
      "u"
    ],
    [
      "c",
      "es"
    ],
    [
      "l",
      "e."
    ],
    [
      "a",
      "l"
    ],
    [
      "e",
      "l"
    ],
    [
      "i",
      "l"
    ],
    [
      "o",
      "l"
    ],
    [
      "b",
      "l"
    ],
    [
      "u",
      "l"
    ],
    [
      "p",
      "l"
    ],
    [
      "t",
      "l"
    ],
    [
      "om",
      "m"
    ],
    [
      "Ġdetai",
      "l"
    ],
    [
      "l",
      "s"
    ],
    [
      "l",
      "ed"
    ],
    [
      "d",
      "r"
    ],
    [
      "r",
      "e"
    ],
    [
      "r",
      "a"
    ],
    [
      "n",
      "d"
    ],
    [
      "a",
      "d"
    ],
    [
      "r",
      "d"
    ],
    [
      "r",
      "y"
    ],
    [
      "r",
      "es"
    ],
    [
      "or",
      "d"
    ],
    [
      "r",
      "ed"
    ],
    [
      "r",
      "o"
    ],
    [
      "if",
      "ic"
    ],
    [
      "Ġcomm",
      "u"
    ],
    [
      "u",
      "t"
    ],
    [
      "u",
      "n"
    ],
    [
      "Ġall",
      "ow"
    ],
    [
      "ev",
      "a"
    ],
    [
      "a",
      "n"
    ],
    [
      "a",
      "t"
    ],
    [
      "a",
      "r"
    ],
    [
      "a",
      "l"
    ],
    [
      "a",
      "s"
    ],
    [
      "a",
      "m"
    ],
    [
      "a",
      "d"
    ],
    [
      "a",
      "b"
    ],
    [
      "a",
      "i"
    ],
    [
      "a",
      "tion"
    ],
    [
      "a",
      "u"
    ],
    [
      "ĠCook",
      "i"
    ],
    [
      "i",
      "e"
    ],
    [
      "ĠCooki",
      "e"
    ],
    [
      "/",
      "or"
    ],
    [
      "c",
      "ook"
    ],
    [
      "c",
      "l"
    ],
    [
      "I",
      "T"
    ],
    [
      "m",
      "i"
    ],
    [
      "i",
      "l"
    ],
    [
      "a",
      "m"
    ],
    [
      "i",
      "e"
    ],
    [
      "Ġfu",
      "ll"
    ],
    [
      "Ġrep",
      "l"
    ],
    [
      "l",
      "y"
    ],
    [
      "l",
      "a"
    ],
    [
      "l",
      "i"
    ],
    [
      "Ġuser",
      "group"
    ],
    [
      "Ġj",
      "o"
    ],
    [
      "o",
      "b"
    ],
    [
      "ĠCa",
      "r"
    ],
    [
      "r",
      "e"
    ],
    [
      "r",
      "a"
    ],
    [
      "r",
      "t"
    ],
    [
      "r",
      "d"
    ],
    [
      "r",
      "s"
    ],
    [
      "r",
      "r"
    ],
    [
      "r",
      "i"
    ],
    [
      "r",
      "g"
    ],
    [
      "r",
      "n"
    ],
    [
      "r",
      "o"
    ],
    [
      "r",
      "ing"
    ],
    [
      "r",
      "u"
    ],
    [
      "Ġcha",
      "r"
    ],
    [
      "r",
      "a"
    ],
    [
      "r",
      "t"
    ],
    [
      "r",
      "c"
    ],
    [
      "r",
      "g"
    ],
    [
      "it",
      "l"
    ],
    [
      "l",
      "e"
    ],
    [
      "l",
      "y"
    ],
    [
      "l",
      "a"
    ],
    [
      "l",
      "es"
    ],
    [
      "l",
      "in"
    ],
    [
      "l",
      "ed"
    ],
    [
      "Ġb",
      "ec"
    ],
    [
      "t",
      "ings"
    ],
    [
      "a",
      "t"
    ],
    [
      "s",
      "t"
    ],
    [
      "t",
      "t"
    ],
    [
      "in",
      "t"
    ],
    [
      "Ġcommu",
      "n"
    ],
    [
      "n",
      "a"
    ],
    [
      "ed",
      ","
    ],
    [
      "A",
      "N"
    ],
    [
      "ic",
      "k"
    ],
    [
      "n",
      "ounc"
    ],
    [
      "n",
      "n"
    ],
    [
      "cook",
      "i"
    ],
    [
      "i",
      "e"
    ],
    [
      "ĠS",
      "ort"
    ],
    [
      "orr",
      "ect"
    ],
    [
      "bou",
      "t"
    ],
    [
      "t",
      "a"
    ],
    [
      "t",
      "."
    ],
    [
      "t",
      ","
    ],
    [
      "Ġrequ",
      "est"
    ],
    [
      "s",
      "ion"
    ],
    [
      "a",
      "s"
    ],
    [
      "u",
      "s"
    ],
    [
      "l",
      "s"
    ],
    [
      "s",
      "s"
    ],
    [
      "r",
      "s"
    ],
    [
      "n",
      "s"
    ],
    [
      "Ġ",
      "ot"
    ],
    [
      "Ġ",
      "eas"
    ],
    [
      "You",
      "r"
    ],
    [
      "er",
      "g"
    ],
    [
      "g",
      "e"
    ],
    [
      "t",
      "er"
    ],
    [
      "h",
      "er"
    ],
    [
      "g",
      "a"
    ],
    [
      "g",
      "h"
    ],
    [
      "g",
      "r"
    ],
    [
      "d",
      "er"
    ],
    [
      "b",
      "er"
    ],
    [
      "g",
      "u"
    ],
    [
      "p",
      "er"
    ],
    [
      "lic",
      "y"
    ],
    [
      "y",
      ","
    ],
    [
      "y",
      "."
    ],
    [
      "m",
      "i"
    ],
    [
      ".0",
      "0"
    ],
    [
      "Ġv",
      "ery"
    ],
    [
      "on",
      "-"
    ],
    [
      "p",
      "on"
    ],
    [
      "O",
      "t"
    ],
    [
      "t",
      "h"
    ],
    [
      "t",
      "r"
    ],
    [
      "t",
      "t"
    ],
    [
      "efu",
      "n"
    ],
    [
      "n",
      "d"
    ],
    [
      "Ġconta",
      "c"
    ],
    [
      "c",
      "t"
    ],
    [
      "Ġana",
      "l"
    ],
    [
      "l",
      "y"
    ],
    [
      "l",
      "o"
    ],
    [
      "Ġand",
      "/or"
    ],
    [
      "u",
      "f"
    ],
    [
      "t",
      "u"
    ],
    [
      "Ġs",
      "u"
    ],
    [
      "s",
      "u"
    ],
    [
      "f",
      "f"
    ],
    [
      "l",
      "u"
    ],
    [
      "Ġb",
      "u"
    ],
    [
      "a",
      "u"
    ],
    [
      "r",
      "u"
    ],
    [
      "f",
      "u"
    ],
    [
      "f",
      "o"
    ],
    [
      "c",
      "u"
    ],
    [
      "d",
      "o"
    ],
    [
      "n",
      "d"
    ],
    [
      "o",
      "l"
    ],
    [
      "a",
      "d"
    ],
    [
      "r",
      "d"
    ],
    [
      "o",
      "t"
    ],
    [
      "o",
      "w"
    ],
    [
      "in",
      "d"
    ],
    [
      "o",
      "m"
    ],
    [
      "o",
      "g"
    ],
    [
      "o",
      "in"
    ],
    [
      "a",
      "z"
    ],
    [
      "r",
      "a"
    ],
    [
      "l",
      "a"
    ],
    [
      "m",
      "a"
    ],
    [
      "h",
      "a"
    ],
    [
      "n",
      "a"
    ],
    [
      "Ġd",
      "a"
    ],
    [
      "w",
      "a"
    ],
    [
      "e",
      "a"
    ],
    [
      "c",
      "a"
    ],
    [
      "g",
      "a"
    ],
    [
      "M",
      "a"
    ],
    [
      "A",
      "R"
    ],
    [
      "efor",
      "e"
    ],
    [
      "e",
      ","
    ],
    [
      "ĠJu",
      "ly"
    ],
    [
      "Ġr",
      "eason"
    ],
    [
      "ita",
      "l"
    ],
    [
      "l",
      "e"
    ],
    [
      "l",
      "s"
    ],
    [
      "a",
      ","
    ],
    [
      "r",
      "a"
    ],
    [
      "l",
      "a"
    ],
    [
      "t",
      "a"
    ],
    [
      "m",
      "a"
    ],
    [
      "h",
      "a"
    ],
    [
      "n",
      "a"
    ],
    [
      "u",
      "a"
    ],
    [
      "d",
      "a"
    ],
    [
      "p",
      "a"
    ],
    [
      "b",
      "a"
    ],
    [
      "w",
      "a"
    ],
    [
      "e",
      "a"
    ],
    [
      "c",
      "a"
    ],
    [
      "g",
      "a"
    ],
    [
      "s",
      "a"
    ],
    [
      "in",
      "a"
    ],
    [
      "ies",
      ","
    ],
    [
      "Ġ",
      "our"
    ],
    [
      "Ġdis",
      "c"
    ],
    [
      "c",
      "h"
    ],
    [
      "c",
      "a"
    ],
    [
      "c",
      "r"
    ],
    [
      "c",
      "u"
    ],
    [
      "ep",
      "a"
    ],
    [
      "a",
      "n"
    ],
    [
      "a",
      "t"
    ],
    [
      "a",
      "r"
    ],
    [
      "a",
      "c"
    ],
    [
      "a",
      "l"
    ],
    [
      "a",
      "s"
    ],
    [
      "a",
      "g"
    ],
    [
      "a",
      "d"
    ],
    [
      "a",
      "p"
    ],
    [
      "Ġm",
      "ed"
    ],
    [
      "o",
      "-ch"
    ],
    [
      "Ġpr",
      "o"
    ],
    [
      "Ġpr",
      "ivate"
    ],
    [
      "Ġch",
      "o"
    ],
    [
      "o",
      "l"
    ],
    [
      "o",
      "o"
    ],
    [
      "o",
      "s"
    ],
    [
      "d",
      ","
    ],
    [
      "n",
      "d"
    ],
    [
      "a",
      "d"
    ],
    [
      "r",
      "d"
    ],
    [
      "o",
      "d"
    ],
    [
      "or",
      "d"
    ],
    [
      "in",
      "d"
    ],
    [
      "u",
      "d"
    ],
    [
      "on",
      "d"
    ],
    [
      "Ġh",
      "is"
    ],
    [
      "Ġpost",
      "ing"
    ],
    [
      "Ġtw",
      "o"
    ],
    [
      "Ġservic",
      "e"
    ],
    [
      "e",
      ","
    ],
    [
      "p",
      "u"
    ],
    [
      "Ġcert",
      "ain"
    ],
    [
      "in",
      "c"
    ],
    [
      "Ġt",
      "yp"
    ],
    [
      "Ġsha",
      "r"
    ],
    [
      "r",
      "e"
    ],
    [
      "r",
      "es"
    ],
    [
      "r",
      "ed"
    ],
    [
      "r",
      "ing"
    ],
    [
      "r",
      "k"
    ],
    [
      "et",
      "y"
    ],
    [
      "y",
      ","
    ],
    [
      "y",
      "."
    ],
    [
      "Ġ(",
      "4"
    ],
    [
      "Ġoff",
      "er"
    ],
    [
      "er",
      ","
    ],
    [
      "em",
      "a"
    ],
    [
      "a",
      "n"
    ],
    [
      "a",
      "t"
    ],
    [
      "a",
      "r"
    ],
    [
      "a",
      "c"
    ],
    [
      "a",
      "l"
    ],
    [
      "a",
      "g"
    ],
    [
      "a",
      "d"
    ],
    [
      "a",
      "i"
    ],
    [
      "a",
      "p"
    ],
    [
      "a",
      "k"
    ],
    [
      "ol",
      "icy"
    ],
    [
      "g",
      "."
    ],
    [
      "a",
      "g"
    ],
    [
      "n",
      "g"
    ],
    [
      "r",
      "g"
    ],
    [
      "o",
      "g"
    ],
    [
      "Ġthrou",
      "g"
    ],
    [
      "Ġthroug",
      "h"
    ],
    [
      "U",
      "R"
    ],
    [
      "Ġcompa",
      "n"
    ],
    [
      "n",
      "y"
    ],
    [
      "Ġed",
      "it"
    ],
    [
      "in",
      "s"
    ],
    [
      "s",
      "t"
    ],
    [
      "s",
      "."
    ],
    [
      "s",
      ","
    ],
    [
      "s",
      "u"
    ],
    [
      "s",
      "h"
    ],
    [
      "l",
      "in"
    ],
    [
      "Ġ",
      "in"
    ],
    [
      "Ġfeatu",
      "r"
    ],
    [
      "r",
      "e"
    ],
    [
      "r",
      "es"
    ],
    [
      "r",
      "ed"
    ],
    [
      "r",
      "ing"
    ],
    [
      "f",
      "t"
    ],
    [
      "un",
      "e"
    ],
    [
      "e",
      "e"
    ],
    [
      "ition",
      "a"
    ],
    [
      "a",
      "l"
    ],
    [
      "a",
      "ll"
    ],
    [
      "Ġvisit",
      "or"
    ],
    [
      "n",
      "k"
    ],
    [
      "c",
      "ess"
    ],
    [
      "ic",
      "ens"
    ],
    [
      "l",
      "ic"
    ],
    [
      "F",
      "r"
    ],
    [
      "r",
      "a"
    ],
    [
      "r",
      "e"
    ],
    [
      "r",
      "es"
    ],
    [
      "r",
      "i"
    ],
    [
      "r",
      "o"
    ],
    [
      "r",
      "ed"
    ],
    [
      "ear",
      "n"
    ],
    [
      "n",
      "t"
    ],
    [
      "n",
      "s"
    ],
    [
      "ĠJu",
      "n"
    ],
    [
      "n",
      "c"
    ],
    [
      "n",
      "g"
    ],
    [
      "n",
      "e"
    ],
    [
      "n",
      "k"
    ],
    [
      "ent",
      "l"
    ],
    [
      "l",
      "e"
    ],
    [
      "l",
      "y"
    ],
    [
      "Ġcontac",
      "t"
    ],
    [
      "t",
      "a"
    ],
    [
      "t",
      "s"
    ],
    [
      "t",
      "ed"
    ],
    [
      "t",
      "ing"
    ],
    [
      "t",
      "."
    ],
    [
      "t",
      "l"
    ],
    [
      "t",
      ","
    ],
    [
      "t",
      "or"
    ],
    [
      "Ġpermis",
      "sions"
    ],
    [
      "ip",
      "t"
    ],
    [
      "t",
      "a"
    ],
    [
      "t",
      "ion"
    ],
    [
      "t",
      "s"
    ],
    [
      "t",
      "ed"
    ],
    [
      "t",
      "u"
    ],
    [
      "t",
      "ing"
    ],
    [
      "t",
      "o"
    ],
    [
      "t",
      "i"
    ],
    [
      "t",
      "."
    ],
    [
      "t",
      ","
    ],
    [
      "ir",
      "t"
    ],
    [
      "t",
      "h"
    ],
    [
      "t",
      "s"
    ],
    [
      "t",
      "u"
    ],
    [
      "t",
      "ing"
    ],
    [
      "t",
      "y"
    ],
    [
      "t",
      "i"
    ],
    [
      "t",
      "."
    ],
    [
      "t",
      "l"
    ],
    [
      "t",
      ","
    ],
    [
      "efun",
      "d"
    ],
    [
      "d",
      "a"
    ],
    [
      "d",
      "s"
    ],
    [
      "d",
      "ing"
    ],
    [
      "y",
      "r"
    ],
    [
      "r",
      "a"
    ],
    [
      "r",
      "e"
    ],
    [
      "l",
      "y"
    ],
    [
      "r",
      "t"
    ],
    [
      "r",
      "s"
    ],
    [
      "r",
      "r"
    ],
    [
      "r",
      "es"
    ],
    [
      "t",
      "y"
    ],
    [
      "r",
      "i"
    ],
    [
      "r",
      "n"
    ],
    [
      "r",
      "o"
    ],
    [
      "h",
      "y"
    ],
    [
      "r",
      "u"
    ],
    [
      "r",
      "g"
    ],
    [
      "r",
      "k"
    ],
    [
      "U",
      "S"
    ],
    [
      "d",
      "."
    ],
    [
      "ov",
      "a"
    ],
    [
      "a",
      "n"
    ],
    [
      "a",
      "t"
    ],
    [
      "a",
      "r"
    ],
    [
      "a",
      "c"
    ],
    [
      "a",
      "l"
    ],
    [
      "a",
      "s"
    ],
    [
      "a",
      "b"
    ],
    [
      "a",
      "ll"
    ],
    [
      "a",
      "k"
    ],
    [
      "a",
      "tion"
    ],
    [
      "ĠOct",
      "ober"
    ],
    [
      "is",
      "e"
    ],
    [
      "d",
      "uct"
    ],
    [
      "n",
      "d"
    ],
    [
      "o",
      "d"
    ],
    [
      "on",
      "d"
    ],
    [
      "h",
      "ing"
    ],
    [
      "w",
      "n"
    ],
    [
      "n",
      "t"
    ],
    [
      "n",
      "a"
    ],
    [
      "n",
      "s"
    ],
    [
      "o",
      "w"
    ],
    [
      "r",
      "is"
    ],
    [
      "a",
      "r"
    ],
    [
      "u",
      "r"
    ],
    [
      "ou",
      "r"
    ],
    [
      "r",
      "r"
    ],
    [
      "p",
      "r"
    ],
    [
      "P",
      "r"
    ],
    [
      "g",
      "r"
    ],
    [
      "b",
      "r"
    ],
    [
      "em",
      "p"
    ],
    [
      "p",
      "l"
    ],
    [
      "p",
      "a"
    ],
    [
      "p",
      "t"
    ],
    [
      "p",
      "r"
    ],
    [
      "p",
      "er"
    ],
    [
      "Ġ1",
      "5"
    ],
    [
      "f",
      "o-ch"
    ],
    [
      "in",
      "fo-ch"
    ],
    [
      "n",
      "u"
    ],
    [
      "a",
      "f"
    ],
    [
      "r",
      "a"
    ],
    [
      "l",
      "a"
    ],
    [
      "t",
      "a"
    ],
    [
      "Ġp",
      "a"
    ],
    [
      "e",
      "a"
    ],
    [
      "f",
      "f"
    ],
    [
      "f",
      "u"
    ],
    [
      "Ġs",
      "a"
[...]
